<unk>	0
<s>	0
</s>	0
▁	-4.20268
이	-4.68892
도	-4.83028
가	-4.8602
는	-4.89375
에	-5.0218
을	-5.09924
의	-5.15831
고	-5.36556
은	-5.37992
를	-5.49057
지	-5.49784
다	-5.62501
▁너무	-5.68003
▁안	-5.70367
로	-5.70454
▁진짜	-5.74047
▁아	-5.7411
▁이	-5.8287
만	-5.88954
한	-5.89473
▁다	-5.95022
요	-6.01476
에서	-6.0247
▁나	-6.03219
나	-6.0395
서	-6.13077
게	-6.14424
▁그	-6.1488
기	-6.15045
으로	-6.16995
▁잘	-6.20028
하고	-6.22414
▁내	-6.23896
▁수	-6.2458
라	-6.29153
▁더	-6.29387
야	-6.30458
어	-6.31024
아	-6.31083
인	-6.33746
▁영화	-6.35532
▁한	-6.39024
네	-6.41048
▁왜	-6.42094
▁거	-6.43393
과	-6.43414
해	-6.46775
면	-6.47379
▁내가	-6.48292
하는	-6.52575
▁좀	-6.52724
랑	-6.53263
▁오늘	-6.54394
와	-6.54524
구	-6.55832
▁저	-6.56236
자	-6.56901
▁것	-6.57407
들	-6.576
거	-6.63218
▁정말	-6.6773
님	-6.69961
니	-6.70015
▁근데	-6.71524
시	-6.71899
▁못	-6.7331
▁아니	-6.74554
리	-6.74886
▁개	-6.76001
는데	-6.77314
스	-6.77369
▁넘	-6.78018
대	-6.78223
▁일	-6.81557
▁그냥	-6.82156
수	-6.83162
사	-6.83353
해서	-6.83753
오	-6.88711
▁또	-6.88754
▁있는	-6.90869
여	-6.96518
까지	-6.97128
▁지금	-6.97337
▁하고	-6.97402
인데	-6.9856
진	-6.98962
할	-6.99691
▁보고	-7.00156
음	-7.02396
▁오	-7.02872
▁난	-7.03102
▁많이	-7.03807
▁하는	-7.05035
▁이거	-7.05984
▁말	-7.06897
▁사	-7.08186
하게	-7.08806
미	-7.09256
▁ᄏᄏ	-7.10981
함	-7.11356
일	-7.11684
▁전	-7.11927
▁우리	-7.12167
▁이런	-7.12334
▁가	-7.1252
▁때	-7.14999
임	-7.15519
▁하	-7.16194
▁ᄏ	-7.16326
▁존나	-7.17242
이랑	-7.17242
▁와	-7.18017
▁나는	-7.18417
당	-7.19282
▁할	-7.20207
▁뭐	-7.20752
하	-7.20814
▁ᅲᅲ	-7.21429
지만	-7.21846
_	-7.22357
안	-7.22782
주	-7.2311
데	-7.23792
ᅲ	-7.25626
라고	-7.2582
▁이제	-7.2611
비	-7.26394
용	-7.26534
마	-7.27094
▁해	-7.28274
▁시	-7.28335
▁다시	-7.29451
▁사람	-7.2949
던	-7.29807
▁좋은	-7.29818
▁이렇게	-7.30233
ᅲᅲ	-7.30289
전	-7.30718
치	-7.31268
동	-7.32559
▁ᅲ	-7.32753
입니다	-7.33867
장	-7.35097
네요	-7.37106
▁중	-7.37596
보	-7.3762
▁제	-7.38647
▁ᄏᄏᄏ	-7.39894
신	-7.40411
▁분	-7.40855
▁게	-7.40911
들이	-7.41109
이다	-7.4111
▁요즘	-7.41648
▁그리고	-7.42248
ᄏᄏᄏᄏᄏᄏᄏᄏᄏᄏᄏᄏᄏᄏᄏᄏ	-7.42276
▁같은	-7.42776
우	-7.42914
냐	-7.43009
중	-7.43104
건	-7.43903
ᄏᄏ	-7.44131
소	-7.44807
정	-7.44991
바	-7.4504
▁건	-7.45616
▁대	-7.45687
상	-7.45852
드	-7.45881
내	-7.46269
이라	-7.46429
적	-7.46551
하면	-7.47417
▁다른	-7.47638
성	-7.4802
부	-7.48936
▁나도	-7.49306
▁시간	-7.51113
▁주	-7.51551
▁제가	-7.52249
보다	-7.52413
▁그런	-7.52498
▁지	-7.52537
▁참	-7.53136
ᄏᄏᄏ	-7.53206
▁없는	-7.53609
▁비	-7.53695
유	-7.53701
두	-7.53757
개	-7.53797
원	-7.54029
디	-7.54115
화	-7.54339
▁자	-7.55297
▁날	-7.5603
트	-7.56129
▁하나	-7.56336
니까	-7.56689
조	-7.56934
러	-7.57093
▁같이	-7.57897
▁어	-7.58643
타	-7.58718
노	-7.60433
▁년	-7.6045
제	-7.61766
▁본	-7.6227
부터	-7.63048
하다	-7.6364
▁ᄏᄏᄏᄏ	-7.63779
▁사진	-7.65249
질	-7.65333
▁사실	-7.65338
이나	-7.65501
▁꼭	-7.65718
▁완전	-7.65865
세	-7.6587
▁무슨	-7.6602
한테	-7.67198
영화	-7.67531
▁역시	-7.67607
▁두	-7.67708
▁월	-7.68297
▁고	-7.69311
단	-7.69585
▁살	-7.69605
그	-7.69936
▁정	-7.70381
▁원	-7.70746
하지	-7.70829
더	-7.71059
선	-7.71635
▁어제	-7.71738
▁이게	-7.72084
▁계속	-7.72389
▁좋아	-7.72573
▁저는	-7.72744
카	-7.72814
걸	-7.73053
듯	-7.733
ᄏᄏᄏᄏ	-7.73778
▁막	-7.74009
모	-7.74133
▁모	-7.74387
처럼	-7.74784
▁김	-7.75039
죠	-7.75335
▁보	-7.75479
▁어떻게	-7.75811
▁마	-7.76317
▁유	-7.76501
▁줄	-7.76649
줄	-7.76886
▁먹고	-7.77221
▁걸	-7.77272
▁생각	-7.77835
엔	-7.77935
면서	-7.78038
파	-7.78246
긴	-7.78608
산	-7.78761
때	-7.79215
루	-7.79364
▁도	-7.79546
날	-7.79685
▁있다	-7.79878
▁미	-7.79911
차	-7.80118
집	-7.80171
이야	-7.80258
래	-7.80437
▁그래도	-7.80842
다가	-7.8128
씨	-7.81799
▁조	-7.81818
보고	-7.82021
까	-7.82149
▁울	-7.82225
▁걍	-7.82389
▁갑자기	-7.82439
▁세	-7.8256
▁구	-7.83093
히	-7.83274
된	-7.83616
▁ᄏᄏᄏᄏᄏ	-7.83787
물	-7.84553
▁볼	-7.84649
▁사람이	-7.84696
▁알	-7.85104
▁집	-7.85973
▁번	-7.86133
에게	-7.86199
▁오늘은	-7.8623
방	-7.86271
감	-7.86598
▁헐	-7.87176
▁그래서	-7.87431
▁차	-7.87568
식	-7.87705
길	-7.87867
분	-7.88128
인가	-7.88171
▁제일	-7.88416
티	-7.88465
▁후	-7.89016
남	-7.89017
실	-7.89037
이라고	-7.89066
으면	-7.89485
며	-7.89503
▁그렇게	-7.89926
무	-7.90057
▁하지만	-7.90205
말	-7.90227
피	-7.90515
▁기	-7.90521
코	-7.90548
▁반	-7.90574
것	-7.90923
▁보면	-7.91703
▁없다	-7.91893
점	-7.91952
▁부	-7.91982
따	-7.91982
했다	-7.92033
군	-7.92064
라는	-7.92218
키	-7.92902
어요	-7.93594
즈	-7.93798
▁돈	-7.94294
▁우	-7.94416
▁내일	-7.94577
저	-7.94585
▁딱	-7.94707
란	-7.95124
는거	-7.95127
▁ᄒᄒ	-7.95349
호	-7.95405
▁그거	-7.95937
프	-7.96063
▁야	-7.96064
▁다들	-7.96197
발	-7.96296
▁신	-7.96588
진짜	-7.96679
▁인	-7.96752
▁점	-7.96805
합니다	-7.96823
▁엄청	-7.97073
ᅮ	-7.97457
ᄏ	-7.98359
▁아직	-7.98993
▁누가	-7.99539
르	-7.99699
연	-7.99759
▁이건	-7.99814
▁좋아하는	-8.00178
▁싶다	-8.00196
▁무	-8.00632
습니다	-8.00828
▁뭔가	-8.00893
한다	-8.01565
ᄏᄏᄏᄏᄏ	-8.01783
s	-8.01932
▁했는데	-8.02536
크	-8.02659
▁시발	-8.02673
살	-8.02673
▁맛집	-8.0281
▁오랜만에	-8.02845
▁바로	-8.02902
려	-8.03045
하기	-8.03448
▁배	-8.03624
▁네	-8.03813
▁일단	-8.04113
▁물	-8.04254
같은	-8.04326
스타그램	-8.04408
▁눈	-8.04562
영	-8.04649
▁먹스타그램	-8.04875
▁ᄉᄇ	-8.05427
레	-8.05597
▁가장	-8.05608
▁머리	-8.06064
져	-8.06069
▁저도	-8.06197
▁처음	-8.06616
▁노래	-8.06806
맛집	-8.07081
▁좋다	-8.07487
▁어떤	-8.07515
▁아니라	-8.07561
▁머	-8.07612
애	-8.07639
온	-8.07818
▁장	-8.07824
적인	-8.07842
간	-8.08034
▁빨리	-8.08421
▁소	-8.08453
좀	-8.08577
포	-8.08797
심	-8.09431
▁하면	-8.09548
▁있는데	-8.09556
▁함께	-8.09891
린	-8.10293
맛	-8.10351
반	-8.10724
▁보는	-8.10792
▁손	-8.10844
다고	-8.10922
▁약간	-8.11252
토	-8.11288
▁피	-8.11613
▁자기	-8.11632
▁너	-8.12145
명	-8.12299
구나	-8.12673
▁남	-8.12893
▁많은	-8.13447
▁갈	-8.13488
▁맛	-8.13948
▁같다	-8.14394
▁되는	-8.14484
인지	-8.14582
▁서	-8.15768
재	-8.15818
▁혼자	-8.1594
▁최고	-8.16128
▁것도	-8.16467
▁집에	-8.16582
역	-8.16634
▁언제	-8.16667
문	-8.16745
▁그럼	-8.16975
▁불	-8.16982
했는데	-8.17008
▁함	-8.17051
▁해서	-8.17148
▁마지막	-8.17685
▁파	-8.18019
공	-8.18258
본	-8.18371
▁이야기	-8.18632
▁모든	-8.18676
▁ᄏᄏᄏᄏᄏᄏ	-8.1878
▁박	-8.18996
형	-8.19043
▁큰	-8.1929
▁온	-8.19339
▁입	-8.1959
▁드라마	-8.19637
▁노	-8.19657
▁여행	-8.19761
생	-8.19829
▁편	-8.20241
▁강	-8.20405
▁열심히	-8.2047
▁자꾸	-8.20667
▁ᅮᅮ	-8.20672
하면서	-8.21056
경	-8.21349
쓰	-8.21509
▁한국	-8.21513
▁기분	-8.21584
▁만	-8.21704
ᄋ	-8.21963
▁서울	-8.22156
▁아니고	-8.22209
▁때문에	-8.22302
▁헉	-8.22757
▁미친	-8.22873
▁화	-8.2304
▁명	-8.23143
▁듯	-8.2377
터	-8.23822
더니	-8.24409
▁책	-8.24597
글	-8.246
▁초	-8.24601
▁새	-8.24629
▁카페	-8.24778
▁위	-8.2501
▁타	-8.25045
박	-8.2552
양	-8.25649
▁선	-8.257
금	-8.25735
▁애	-8.25952
▁바	-8.25988
▁아주	-8.26261
▁밥	-8.26542
▁스	-8.26787
들은	-8.27081
▁글	-8.27124
▁여기	-8.27124
▁된	-8.2751
적으로	-8.27647
▁대한	-8.28338
▁ᅮ	-8.28392
▁열	-8.28501
▁별	-8.28743
계	-8.28839
▁별로	-8.28937
▁친구	-8.28969
운	-8.29081
ᄒ	-8.29156
▁한다	-8.29271
해요	-8.2929
난	-8.29514
▁한번	-8.2974
림	-8.29775
작	-8.2979
▁느낌	-8.3018
이고	-8.30331
관	-8.30515
후	-8.30678
▁발	-8.30742
▁제발	-8.30811
▁엄마	-8.30892
▁감사합니다	-8.30937
▁성	-8.30962
▁호	-8.31065
▁얘기	-8.31166
▁남자	-8.31375
▁같은데	-8.31432
▁음	-8.31583
으	-8.3159
▁될	-8.31643
▁치	-8.31643
▁단	-8.31766
▁산	-8.31836
▁코	-8.31892
▁사랑	-8.31896
위	-8.3198
▁하루	-8.32056
통	-8.32141
▁리	-8.32229
석	-8.32235
되는	-8.32411
너무	-8.32561
갈	-8.32776
▁여	-8.32892
입	-8.33006
태	-8.33053
판	-8.33563
지는	-8.33667
▁상	-8.33716
회	-8.33927
려고	-8.33959
▁달	-8.34074
ᄏᄏᄏᄏᄏᄏ	-8.34087
준	-8.34115
▁원래	-8.34144
▁이번	-8.34233
울	-8.34376
거야	-8.34395
ᅮᅮ	-8.34552
▁이미	-8.34671
▁귀여워	-8.35187
▁있어서	-8.35312
▁뭐야	-8.35401
▁그게	-8.35721
▁여자	-8.36127
머	-8.36333
배	-8.36624
▁소리	-8.36827
ᅲᅲᅲ	-8.37112
▁뭘	-8.37346
▁전에	-8.37404
▁시작	-8.3746
▁영	-8.37552
▁첫	-8.37723
하는데	-8.37768
▁거의	-8.37928
업	-8.37934
▁대박	-8.37965
있는	-8.38038
▁봤는데	-8.38075
▁얼굴	-8.38212
▁맨날	-8.38452
▁하는데	-8.38614
든	-8.39002
알	-8.39004
어서	-8.39151
천	-8.39199
했던	-8.39242
▁몇	-8.39313
담	-8.39423
▁추천	-8.39484
▁아닌	-8.39538
복	-8.39606
버	-8.39674
▁재	-8.39979
▁오늘도	-8.4008
ᄒᄒ	-8.40237
▁되	-8.40334
백	-8.40445
▁ᄏᄏᄏᄏᄏᄏᄏ	-8.40711
▁짱	-8.4072
▁에	-8.40928
민	-8.41025
이에요	-8.4147
▁일본	-8.41472
▁빵	-8.41793
거나	-8.41884
급	-8.41916
달	-8.42032
▁연	-8.42076
불	-8.421
▁없고	-8.42337
▁말이	-8.4246
초	-8.42695
라도	-8.42807
▁싶은	-8.42847
▁적	-8.42904
▁가서	-8.42914
체	-8.42928
▁연기	-8.42978
▁영상	-8.43013
행	-8.43076
편	-8.43079
▁있어	-8.43157
이라는	-8.43496
예	-8.43543
▁아침	-8.43641
빵	-8.43843
▁얼마나	-8.43891
▁결국	-8.44181
국	-8.44409
잘	-8.44496
들을	-8.44541
▁같아요	-8.4463
▁문	-8.4468
매	-8.44857
밖에	-8.44883
었다	-8.45226
▁없어	-8.45451
▁부산	-8.45641
▁아직도	-8.45803
▁간	-8.45885
▁백	-8.462
너	-8.46242
현	-8.46272
▁항상	-8.46341
▁사람들	-8.4659
▁나오는	-8.46634
▁조금	-8.46841
▁드디어	-8.47135
년	-8.47229
▁만들어	-8.47564
▁운동	-8.47703
▁벌써	-8.47777
▁위해	-8.48029
▁늘	-8.4811
▁정도	-8.4831
워	-8.48547
메	-8.48647
볼	-8.49419
▁약	-8.4948
희	-8.4956
▁트위터	-8.49597
해야	-8.49647
▁저거	-8.49899
▁없어서	-8.4991
▁영화를	-8.49969
덕	-8.49973
님이	-8.5006
쿠	-8.50196
▁로	-8.50229
잖아	-8.50418
▁진	-8.50501
▁동	-8.50611
▁그래	-8.50623
종	-8.50709
▁학교	-8.5079
▁있고	-8.50798
▁언니	-8.5085
강	-8.50995
▁등	-8.51102
▁올	-8.51187
▁속	-8.51262
교	-8.5142
▁좋아요	-8.51476
▁알고	-8.51554
는게	-8.51632
▁대체	-8.51649
더라	-8.51718
나요	-8.52065
▁있을	-8.52071
락	-8.52186
▁커피	-8.52243
ᅲᅲᅲᅲ	-8.52303
▁생각이	-8.52706
▁어케	-8.528
▁문제	-8.52889
▁저녁	-8.53125
▁양	-8.53312
▁가는	-8.53475
▁공	-8.53477
삼	-8.53589
봐	-8.53896
▁술	-8.54255
에는	-8.54278
길래	-8.54349
창	-8.54531
▁ᄒ	-8.54751
▁밤	-8.55087
▁방	-8.5535
▁기대	-8.55467
병	-8.55617
▁ᄏᄏᄏᄏᄏᄏᄏᄏ	-8.55913
▁하지	-8.56079
▁것이	-8.56108
▁예	-8.56236
사람	-8.56236
약	-8.56242
▁들	-8.56512
▁카	-8.56531
카페	-8.56597
▁허	-8.56688
▁만든	-8.56755
▁제대로	-8.56803
지도	-8.56826
망	-8.56971
▁자주	-8.57245
▁곳	-8.57306
▁물론	-8.57438
▁마음	-8.57445
케	-8.57474
라서	-8.57543
▁없이	-8.57725
▁모두	-8.57897
▁인생	-8.57962
라면	-8.57997
▁이상	-8.58014
세요	-8.58273
▁포	-8.58489
▁감	-8.58669
ᄀ	-8.58702
▁진심	-8.5878
▁요	-8.59246
▁솔직히	-8.59336
ᄂ	-8.59553
▁예쁜	-8.59939
▁생일	-8.60182
▁없	-8.60233
▁아님	-8.60373
▁ᅲᅲᅲ	-8.60511
▁않고	-8.60762
▁앗	-8.60764
열	-8.60834
▁써	-8.60981
▁영화는	-8.61029
짐	-8.61119
다니	-8.61297
▁좋겠다	-8.61677
▁삼	-8.61678
▁나의	-8.61704
냐고	-8.61854
▁일이	-8.61924
었는데	-8.61971
▁먹는	-8.61978
투	-8.62079
▁팔	-8.6226
색	-8.62668
▁꽃	-8.62724
▁이름	-8.62966
▁않는	-8.63057
▁쓰	-8.63135
▁봄	-8.63199
▁해도	-8.63378
▁되게	-8.63499
▁감독	-8.63874
▁옷	-8.63934
▁주말	-8.6397
ᄏᄏᄏᄏᄏᄏᄏ	-8.64022
못	-8.64231
링	-8.64244
▁고양이	-8.64322
▁길	-8.64501
y	-8.64543
▁있음	-8.64563
▁뭔	-8.64565
▁스토리	-8.64641
▁어디	-8.64997
되	-8.65141
밥	-8.65155
▁공부	-8.65292
잇	-8.6544
여행	-8.65456
▁최고의	-8.65503
▁아이	-8.65539
▁잠	-8.65866
▁으	-8.65997
▁기억	-8.66009
사진	-8.6603
또	-8.66251
▁먹	-8.66358
퍼	-8.66433
에도	-8.66509
▁씨발	-8.66534
▁악	-8.6662
주세요	-8.66918
겠다	-8.66918
▁데	-8.6703
▁젤	-8.67207
녀	-8.67347
▁쓰레기	-8.67351
봄	-8.67442
▁시간이	-8.67596
새	-8.67668
하나	-8.67832
▁토	-8.67874
▁않은	-8.67876
▁님	-8.68136
▁나온	-8.68254
때문에	-8.68473
각	-8.68496
▁같아	-8.68559
▁사람들이	-8.68661
▁인간	-8.68683
▁사랑해	-8.68695
시간	-8.68737
하지만	-8.68761
법	-8.68958
▁일상	-8.68979
▁ᅳᅳ	-8.69102
▁혹시	-8.69308
▁라	-8.69312
ᄅ	-8.69398
하네	-8.69412
없는	-8.69587
하는거	-8.69608
이면	-8.6962
없이	-8.69638
캐	-8.69651
겠지	-8.69793
친	-8.69877
▁영화가	-8.69983
▁선물	-8.70008
▁맛있는	-8.70025
▁하면서	-8.70292
언	-8.70448
가서	-8.70765
줘	-8.70803
대로	-8.7083
▁작품	-8.71335
학	-8.71354
▁눈물	-8.71476
해도	-8.71622
꺼	-8.71634
▁저런	-8.71652
▁오늘의	-8.71755
권	-8.71765
ᅡ	-8.71789
▁말고	-8.71923
▁배우	-8.71966
움	-8.71975
아니	-8.72303
릴	-8.72352
▁했다	-8.72382
▁보내	-8.72393
속	-8.72406
력	-8.72447
▁있어요	-8.72679
왜	-8.72785
들의	-8.72907
근	-8.73052
류	-8.73091
▁심	-8.7311
▁절대	-8.73242
▁날씨	-8.73289
이네	-8.73319
넘	-8.73688
츠	-8.73753
야지	-8.73965
▁여름	-8.74101
▁둘	-8.74179
악	-8.7424
▁흑흑	-8.74391
▁오래	-8.74392
청	-8.74625
▁평점	-8.74725
▁매	-8.7475
잉	-8.74791
절	-8.74793
쳐	-8.7493
곡	-8.7498
커	-8.75013
겨	-8.75099
론	-8.75109
▁봐	-8.75192
▁게임	-8.75213
브	-8.75386
등	-8.75417
막	-8.75631
▁여성	-8.75688
▁들어	-8.75721
▁있습니다	-8.75892
▁키	-8.76094
▁ᄏᄏᄏᄏᄏᄏᄏᄏᄏ	-8.76288
▁아니면	-8.76308
▁합니다	-8.76587
▁돌	-8.76625
▁먼저	-8.76722
▁귀여운	-8.7699
▁들고	-8.77038
▁넘나	-8.77058
▁있	-8.77249
돌	-8.77416
만큼	-8.77599
▁다음	-8.77603
▁트윗	-8.77684
으니까	-8.78028
ᄉ	-8.78265
▁그림	-8.78359
▁잘못	-8.78505
기도	-8.78627
쥬	-8.78755
건데	-8.78815
설	-8.78849
씩	-8.78967
▁당	-8.79115
▁먹을	-8.79298
보면	-8.79523
▁후기	-8.7953
맨	-8.79547
▁행복	-8.79773
▁나를	-8.79797
직	-8.79876
▁저렇게	-8.80186
▁B	-8.80482
▁말을	-8.80514
▁니	-8.80659
▁크	-8.80914
▁외	-8.8111
놓고	-8.81386
는지	-8.81386
▁애들	-8.81428
표	-8.81476
▁그만	-8.81535
생각	-8.81603
▁끝	-8.81622
구요	-8.8174
▁세상	-8.81749
왕	-8.81844
▁밖에	-8.82201
▁방금	-8.82219
▁나랑	-8.82612
▁은	-8.82642
▁점심	-8.8274
던데	-8.82744
써	-8.82824
중에	-8.83308
▁최	-8.83359
▁생	-8.83416
▁고민	-8.83469
▁만원	-8.83722
죽	-8.8377
추	-8.83835
▁안녕하세요	-8.83855
출	-8.8397
▁따라	-8.83991
▁이걸	-8.84077
군요	-8.8408
누	-8.84326
▁죽	-8.8438
언니	-8.84707
▁음악	-8.84866
▁욕	-8.84991
찌	-8.85092
▁싶어	-8.85273
팔	-8.85352
▁D	-8.85434
▁A	-8.85448
▁경	-8.85534
▁티	-8.85536
▁까	-8.85579
▁치즈	-8.85717
▁시험	-8.85764
김	-8.85804
끼	-8.85846
▁회	-8.85959
ᄏᄏᄏᄏᄏᄏᄏᄏ	-8.86052
하며	-8.86084
번	-8.86206
▁맛스타그램	-8.86242
소리	-8.86304
▁쓰는	-8.86353
하자	-8.86365
슬	-8.86373
▁풀	-8.86518
이지만	-8.86719
고싶다	-8.86761
▁해야	-8.86829
봉	-8.87076
와서	-8.87246
▁레	-8.87356
으니	-8.87452
▁봐도	-8.87607
▁분위기	-8.87623
▁집에서	-8.87709
▁조아	-8.87815
규	-8.87999
▁잇	-8.88307
할때	-8.88341
▁치킨	-8.88392
▁가지	-8.88398
블	-8.88527
▁알아	-8.88566
▁듣고	-8.8858
▁_	-8.8867
▁있으면	-8.88712
스트	-8.88757
▁제주	-8.88851
▁알티	-8.88883
▁누구	-8.88943
▁특히	-8.89474
▁금	-8.89618
▁맛이	-8.89722
주는	-8.89852
▁보니	-8.89917
▁나중에	-8.90107
이라도	-8.90162
▁그건	-8.90177
것도	-8.90275
▁따	-8.90289
▁다이어트	-8.90349
▁쓰고	-8.90373
▁보면서	-8.90526
먹고	-8.90689
▁팬	-8.90709
외	-8.90916
였다	-8.90954
▁이해	-8.90985
▁출근	-8.91112
▁먹방	-8.91419
꼬	-8.9158
▁뭐가	-8.91676
▁생각보다	-8.91861
앙	-8.91876
처	-8.91876
한거	-8.91905
▁같아서	-8.91911
월	-8.92214
테	-8.92378
▁실	-8.92439
▁알바	-8.92517
짜	-8.92582
쉬	-8.92596
▁어느	-8.92648
▁그때	-8.92739
머리	-8.92839
▁ᄏᄏᄏᄏᄏᄏᄏᄏᄏᄏ	-8.92912
▁싫어	-8.92953
다는	-8.92957
승	-8.92992
향	-8.931
▁맞	-8.93158
▁없음	-8.93203
▁디	-8.93264
▁엄마가	-8.93412
▁기분이	-8.93545
▁쓸	-8.93614
▁찾아	-8.93625
ᅲᅲᅲᅲᅲ	-8.9396
▁와서	-8.93967
d	-8.93993
먹	-8.94165
눈	-8.9419
▁선생님	-8.9421
사랑	-8.94346
순	-8.94353
▁수업	-8.94414
▁급	-8.94439
▁ᅲᅲᅲᅲ	-8.94466
▁S	-8.94754
하다가	-8.94783
▁고기	-8.94827
o	-8.94834
햇	-8.94845
꾸	-8.94897
▁추	-8.95078
탄	-8.95218
이지	-8.95243
탕	-8.95405
크림	-8.95454
짱	-8.95504
▁재밌게	-8.95513
▁일찍	-8.95543
▁망	-8.95709
▁몸	-8.95813
▁찐	-8.96054
목	-8.96079
▁왕	-8.96143
플	-8.96162
광	-8.96182
밤	-8.96273
▁위한	-8.96274
▁된다	-8.96434
▁베	-8.96437
▁중에	-8.96488
▁빠	-8.96491
라니	-8.96535
콘	-8.96572
하니까	-8.96696
▁여러분	-8.96802
▁앞	-8.96829
▁좋고	-8.96902
▁가끔	-8.96921
▁개봉	-8.96976
▁식	-8.97118
송	-8.9712
독	-8.97138
찬	-8.97191
▁통	-8.97252
이란	-8.97271
▁모르는	-8.97288
됨	-8.97445
▁맞팔	-8.97481
ᅳ	-8.97484
▁매일	-8.97497
칠	-8.97543
▁보기	-8.97591
r	-8.97837
하니	-8.97886
▁뒤	-8.97952
▁마음이	-8.98139
▁첨	-8.98186
▁순간	-8.98348
▁덜	-8.98353
▁그걸	-8.98407
▁천	-8.98511
▁아닌데	-8.98563
밀	-8.98699
▁힘	-8.98747
▁좋	-8.99059
▁과	-8.9922
▁시즌	-8.99254
▁어디서	-8.99378
▁것을	-8.994
▁아무리	-8.99432
▁ᄅᄋ	-8.99499
▁앞으로	-8.99515
▁전혀	-8.99528
슈	-8.9959
앤	-8.99615
▁감동	-8.99616
했	-8.99625
▁꿈	-8.99731
▁걱정	-8.99862
▁같음	-8.99877
같이	-8.99903
채	-8.99933
▁순	-9.00014
북	-9.00019
▁쉬	-9.00041
하구	-9.00509
m	-9.00571
증	-9.00671
허	-9.00844
x	-9.00905
▁준	-9.00943
▁꽤	-9.01047
▁싶은데	-9.01544
▁귀	-9.01608
▁현	-9.01653
▁새로운	-9.01693
▁극	-9.01718
▁청	-9.01911
손	-9.02057
▁느낌이	-9.02071
탈	-9.02083
빠	-9.02115
져서	-9.02248
▁병	-9.02392
▁나와	-9.02456
▁맥주	-9.02481
▁준비	-9.02537
ᄏᄏᄏᄏᄏᄏᄏᄏᄏ	-9.02546
봤는데	-9.02577
▁계정	-9.02666
쇼	-9.02714
참	-9.02813
얼	-9.02925
이었다	-9.02928
별	-9.02936
▁미국	-9.02956
▁아기	-9.02969
▁태	-9.02984
▁곧	-9.03077
t	-9.03082
척	-9.03188
▁받아	-9.03189
▁아닌가	-9.0323
▁것은	-9.03416
극	-9.03597
▁나한테	-9.0361
▁세상에	-9.03636
▁재미	-9.03658
▁지난	-9.03676
▁짜	-9.03715
▁ᄏᄏᄏᄏᄏᄏᄏᄏᄏᄏᄏ	-9.03757
▁때마다	-9.03804
페	-9.03841
였는데	-9.041
마다	-9.04132
▁목소리	-9.04179
가지고	-9.04311
▁아니다	-9.04342
▁사람은	-9.04407
▁총	-9.04413
▁라고	-9.04657
▁아냐	-9.04708
거리	-9.04765
ᄃ	-9.05055
▁생각을	-9.05176
될	-9.05324
▁결혼	-9.05532
▁전부	-9.05546
는건	-9.05549
귀	-9.05626
▁분명	-9.05664
했어요	-9.05799
베	-9.058
책	-9.05901
▁만드는	-9.05902
▁쳐	-9.05922
▁있었는데	-9.05973
▁작은	-9.06096
ᄆ	-9.06285
▁절	-9.0633
▁윤	-9.06337
▁가지고	-9.0636
올	-9.06367
▁맞아	-9.06427
벌	-9.06482
ᅳᅳ	-9.06498
▁사용	-9.06504
슨	-9.06674
뭐	-9.06746
▁가고	-9.06808
▁그러	-9.06809
▁나와서	-9.06918
▁오빠	-9.06927
▁사고	-9.06942
▁아마	-9.06959
▁홍	-9.07126
▁드	-9.07202
건지	-9.07315
▁내내	-9.07386
정도	-9.07573
▁음식	-9.07606
▁대해	-9.07678
거든요	-9.07684
▁퍼	-9.07709
▁목	-9.07741
▁같	-9.07768
▁않	-9.07771
이라니	-9.07882
량	-9.08044
▁직접	-9.08136
▁폰	-9.08257
▁M	-9.08408
하던	-9.08419
▁얼마	-9.0848
스타	-9.08691
에요	-9.08725
▁가족	-9.08737
▁앨범	-9.08742
▁그대로	-9.09027
▁아침에	-9.09079
하세요	-9.0927
▁너무너무	-9.09287
▁휴	-9.09388
▁투	-9.09459
▁없는데	-9.09492
팅	-9.09514
른	-9.09546
▁캐릭터	-9.09662
▁종	-9.09718
▁왤케	-9.09871
합	-9.09977
▁둘이	-9.0998
▁새로	-9.09992
▁꼬	-9.10026
▁한데	-9.10041
▁아는	-9.10159
기를	-9.10364
▁돼	-9.10386
셔	-9.10448
▁씨	-9.10535
▁잔	-9.10569
▁나름	-9.10725
름	-9.1074
▁올해	-9.10773
▁맘에	-9.10964
▁사는	-9.10968
한다고	-9.11099
떡	-9.11114
▁내용	-9.11312
추천	-9.11317
▁이상한	-9.11501
▁권	-9.11505
▁쓴	-9.11557
커피	-9.11669
▁하나도	-9.11688
▁있지	-9.1171
▁만나	-9.11761
환	-9.11796
▁응	-9.11842
▁최애	-9.12022
▁우리집	-9.1211
▁셀카	-9.12116
▁편의점	-9.12123
▁회사	-9.12218
▁잡	-9.12253
옴	-9.12497
▁형	-9.12529
립	-9.12545
▁끝까지	-9.1259
근데	-9.1278
▁들어가	-9.12813
▁만들	-9.12851
▁것이다	-9.12998
짓	-9.13005
보는	-9.13006
▁자고	-9.13032
▁탐라	-9.13035
▁관	-9.13054
▁민	-9.13088
결	-9.13166
있	-9.1327
▁채	-9.13308
나서	-9.13399
▁친구가	-9.13471
▁되고	-9.13532
▁꾸	-9.13589
주고	-9.13594
▁결	-9.13686
침	-9.1369
▁ᄋ	-9.13697
▁가면	-9.13741
▁아빠	-9.13755
▁맛있	-9.13845
c	-9.13883
▁아까	-9.13962
인줄	-9.14133
▁정리	-9.1419
▁캐	-9.14355
▁주는	-9.14395
▁먹은	-9.14415
▁인스타	-9.14529
▁퇴근	-9.14572
▁좋아서	-9.14672
▁보니까	-9.14688
을때	-9.14819
▁업	-9.14985
b	-9.15194
▁봤다	-9.15238
▁새벽	-9.15253
▁대충	-9.1533
놈	-9.15379
▁C	-9.15379
▁마음에	-9.15387
▁변	-9.15484
▁아무도	-9.15601
▁바람	-9.15683
잖아요	-9.15694
▁입고	-9.15779
▁이유	-9.15876
▁정신	-9.15955
▁아이돌	-9.15961
▁그럴	-9.16007
▁연출	-9.16087
하러	-9.16225
▁초코	-9.16291
▁도대체	-9.16292
▁딸	-9.16382
좋아	-9.16433
▁복	-9.16435
혀	-9.16498
▁공연	-9.16507
평	-9.16581
▁아무	-9.16756
▁지금은	-9.16757
런	-9.16875
n	-9.1692
▁이벤트	-9.16977
▁가능	-9.17087
▁바다	-9.17184
▁가을	-9.1729
▁떠	-9.1747
▁졸라	-9.17554
충	-9.17556
샤	-9.1781
▁히	-9.17884
▁취향	-9.17906
▁홍대	-9.17951
▁버스	-9.18025
▁갓	-9.18123
▁수가	-9.1814
S	-9.18161
▁분들	-9.18171
킹	-9.18229
철	-9.18313
▁엥	-9.18346
인듯	-9.18521
▁싸	-9.18542
없	-9.18638
▁벌	-9.18909
▁서로	-9.18929
잡	-9.18996
l	-9.19008
▁수도	-9.19191
▁매우	-9.19193
▁대구	-9.19235
그램	-9.19278
뿐	-9.1933
▁귀엽다	-9.19446
▁그리	-9.19467
인가요	-9.19479
품	-9.19502
▁잠깐	-9.19512
▁독	-9.19523
▁낼	-9.1959
▁되어	-9.19603
범	-9.1962
돈	-9.19642
▁대신	-9.19691
▁나서	-9.19725
▁먹어	-9.19798
싸	-9.19844
엘	-9.19861
기는	-9.20019
▁임	-9.20059
▁광주	-9.20238
▁딸기	-9.20263
느	-9.2028
▁예전에	-9.20336
▁용	-9.2038
ing	-9.20397
존나	-9.20432
▁뭐지	-9.20502
이라서	-9.20585
니다	-9.20631
▁굳이	-9.20685
C	-9.20711
▁나만	-9.20805
▁많	-9.20906
al	-9.21058
인거	-9.2113
▁짤	-9.21137
▁좋은데	-9.2128
er	-9.21362
▁보러	-9.2145
▁여기서	-9.215
치킨	-9.21567
들어	-9.21744
수가	-9.21932
▁커	-9.21987
▁모르겠다	-9.2199
▁암	-9.2201
한데	-9.22318
▁간만에	-9.22386
▁나오	-9.22414
▁동네	-9.22439
▁기억이	-9.22671
께	-9.22724
▁역	-9.22734
여서	-9.22734
골	-9.22766
빈	-9.22847
▁언제나	-9.22927
▁맘	-9.23052
▁세계	-9.23088
▁요새	-9.23133
▁보이는	-9.23217
▁이런거	-9.23328
치고	-9.23362
▁보다	-9.23388
▁제주도	-9.23392
▁정도로	-9.23448
▁영어	-9.23608
버린	-9.2362
▁트	-9.23621
팬	-9.23632
▁거야	-9.23632
▁얼른	-9.237
▁마크	-9.23781
▁성공	-9.23782
▁암튼	-9.23788
▁패	-9.23804
▁주문	-9.23815
▁차라리	-9.23833
▁송	-9.23852
▁동생	-9.2408
k	-9.24179
▁광고	-9.24242
했어	-9.24259
나는	-9.24267
▁점점	-9.243
▁버	-9.24319
건가	-9.24364
▁있었다	-9.24382
▁똥	-9.24419
▁깨	-9.24429
▁판	-9.24465
정말	-9.24474
ᄏᄏᄏᄏᄏᄏᄏᄏᄏᄏ	-9.24483
▁찍어	-9.24492
쯤	-9.24541
더라구요	-9.24547
▁ᄏᄏᄏᄏᄏᄏᄏᄏᄏᄏᄏᄏ	-9.24668
▁무대	-9.24739
▁떡볶이	-9.24831
격	-9.24868
클	-9.24872
▁맞는	-9.24925
▁존	-9.24963
보니	-9.25111
치즈	-9.25162
▁법	-9.25223
▁담	-9.2523
▁떡	-9.25247
▁안녕	-9.25351
▁액션	-9.25386
먹스타그램	-9.25413
▁이젠	-9.25605
▁많아서	-9.25904
▁표정	-9.25934
▁아무것도	-9.26018
엉	-9.26053
▁나올	-9.26057
e	-9.26057
▁시에	-9.26098
간다	-9.26131
▁행복한	-9.26155
▁건강	-9.26194
록	-9.26229
▁겨울	-9.2624
▁거기	-9.26398
▁방송	-9.26509
되고	-9.26546
▁하기	-9.26641
p	-9.26667
곳	-9.26782
▁메	-9.26804
in	-9.26829
▁탈	-9.26939
▁사이	-9.26986
되어	-9.26991
▁있다는	-9.27057
지마	-9.27101
시발	-9.27276
▁빼	-9.27305
▁전화	-9.27377
뜨	-9.27396
▁받고	-9.2741
기에	-9.27563
을까	-9.27595
잔	-9.27751
▁올려	-9.27822
거든	-9.27912
▁흑	-9.27929
취	-9.28109
▁있다고	-9.28117
▁헤	-9.28161
예요	-9.28172
▁있지만	-9.28239
ᄏᄏᄏᄏᄏᄏᄏᄏᄏᄏᄏᄏᄏᄏᄏ	-9.28305
▁하늘	-9.28321
필	-9.28449
▁사랑하는	-9.28538
푸	-9.28649
▁자리	-9.28677
▁뒤에	-9.2875
들도	-9.28846
▁비슷한	-9.28941
▁중국	-9.28983
령	-9.29135
▁선팔	-9.29257
했습니다	-9.29316
긔	-9.2936
ᅵ	-9.2939
였	-9.29433
a	-9.29485
▁살아	-9.29683
▁ᄀ	-9.29804
▁못하는	-9.29877
지고	-9.29878
▁됨	-9.29911
▁앞에	-9.29935
▁피자	-9.2994
▁선택	-9.2998
▁위에	-9.30232
드라마	-9.30303
▁날이	-9.30412
자나	-9.30617
▁설	-9.30668
▁싶어서	-9.30692
▁G	-9.30721
▁산책	-9.30773
자마자	-9.30956
▁둘다	-9.30964
▁보다가	-9.30964
ᅥ	-9.31061
▁받은	-9.31114
▁노력	-9.31145
▁슈	-9.3117
▁에서	-9.31183
쥐	-9.31188
윤	-9.31369
▁멘션	-9.31372
▁누	-9.31448
▁간식	-9.31458
▁덕분에	-9.31461
▁콘서트	-9.31497
▁가슴	-9.31572
▁P	-9.3166
▁무조건	-9.31744
▁푸	-9.31836
에선	-9.31872
▁흐	-9.31948
ᅲᅲᅲᅲᅲᅲ	-9.32039
▁싶	-9.32058
▁승	-9.3209
▁않을	-9.32098
▁K	-9.32105
▁F	-9.3212
▁덕질	-9.32172
▁피부	-9.32197
염	-9.32243
▁평점이	-9.32278
해야지	-9.32366
▁창	-9.32413
▁웃겨	-9.32461
하려고	-9.32522
내가	-9.32558
▁후회	-9.32575
▁강아지	-9.32581
▁동안	-9.32598
옷	-9.32681
▁되면	-9.32682
데이	-9.32724
▁진자	-9.32747
가요	-9.32783
▁ᄒᄒᄒ	-9.32832
▁장면	-9.32836
B	-9.32866
려서	-9.32989
▁상상	-9.33055
▁트친	-9.33094
▁이번에	-9.33155
▁했던	-9.3316
▁필요	-9.33183
▁없을	-9.33186
이가	-9.33357
▁보고싶다	-9.33411
▁심지어	-9.33471
▁분이	-9.33511
아서	-9.33547
▁얘들아	-9.33563
▁맛있다	-9.33604
▁알았는데	-9.33642
▁찍	-9.33655
▁옆에	-9.33805
갓	-9.33805
▁크리스마스	-9.33829
▁따로	-9.33886
g	-9.33944
엇	-9.33947
▁눈이	-9.34081
▁처	-9.34093
▁저희	-9.34115
▁먹으러	-9.34155
에서는	-9.34305
▁접	-9.34343
들아	-9.34355
ᄏᄏᄏᄏᄏᄏᄏᄏᄏᄏᄏ	-9.34566
▁보는데	-9.34568
술	-9.34596
▁표현	-9.34644
▁병원	-9.34695
했음	-9.34771
기가	-9.34791
▁간다	-9.34804
▁멋진	-9.3485
▁댓글	-9.34858
친구	-9.34916
▁추가	-9.34957
▁크게	-9.35008
하여	-9.35073
풀	-9.35154
▁철	-9.35232
샷	-9.35234
걸로	-9.35249
료	-9.35405
답니다	-9.35518
▁프로	-9.35628
롱	-9.35698
▁주고	-9.35723
▁공감	-9.35734
▁설정	-9.35747
존	-9.35882
▁못한	-9.36025
D	-9.36025
▁대학	-9.3608
▁광	-9.36113
▁ᅲᅲᅲᅲᅲ	-9.36127
▁못하고	-9.36128
징	-9.36258
▁보통	-9.36341
동안	-9.3639
▁해요	-9.36517
느라	-9.3655
▁나가	-9.36551
▁그저	-9.36614
▁그런데	-9.36735
해주세요	-9.3681
운동	-9.36835
었던	-9.36858
▁안에	-9.36937
된다	-9.36951
▁촬영	-9.3697
▁루	-9.36989
겠습니다	-9.37012
▁대사	-9.372
▁굿	-9.37303
▁괜찮은	-9.37356
▁끝나고	-9.37437
진다	-9.37484
기로	-9.37538
십	-9.37731
몰	-9.37787
오빠	-9.37795
▁아이스크림	-9.37861
혜	-9.37932
▁남은	-9.37957
땐	-9.37971
▁있을까	-9.37974
▁연락	-9.37974
있다	-9.38022
람	-9.38072
▁아닐까	-9.3814
▁크림	-9.38158
▁친구들	-9.382
먼	-9.38257
▁존재	-9.38416
궁	-9.38453
▁애기	-9.38485
▁연애	-9.38496
익	-9.38518
패	-9.38519
이니까	-9.38524
▁친	-9.38556
렌	-9.38577
있는데	-9.38607
▁어차피	-9.38636
▁왔다	-9.38663
닥	-9.38735
▁소설	-9.38882
▁애니	-9.38912
▁카메라	-9.39021
▁좋았다	-9.39048
좋	-9.39085
시는	-9.39094
▁하다	-9.39104
ᄏᄏᄏᄏᄏᄏᄏᄏᄏᄏᄏᄏ	-9.3911
▁모습	-9.39135
이네요	-9.3919
꽃	-9.3921
▁몰라	-9.39266
▁각	-9.3928
▁아니야	-9.39397
케이크	-9.39487
분들	-9.39539
▁달달	-9.3957
▁타고	-9.39615
▁얘	-9.39618
▁만화	-9.39766
큐	-9.39771
L	-9.39852
숙	-9.39865
자가	-9.39872
▁ᄏᄏᄏᄏᄏᄏᄏᄏᄏᄏᄏᄏᄏ	-9.39991
▁자체	-9.40009
▁명작	-9.40024
▁탐라에	-9.40043
새끼	-9.40069
▁주인공	-9.40205
▁과제	-9.40291
▁데이트	-9.40309
▁살짝	-9.40331
▁황	-9.40331
만한	-9.40372
▁하다가	-9.40437
▁마시	-9.4056
거지	-9.40663
하네요	-9.40681
겠지만	-9.40731
▁놀	-9.40737
웃	-9.40807
▁현재	-9.4082
깨	-9.40946
T	-9.40994
곤	-9.41022
▁쫌	-9.41045
▁그런거	-9.41066
들에게	-9.41116
▁부분	-9.41162
▁아름다운	-9.4117
▁ᄉ	-9.41201
F	-9.41208
▁우리가	-9.41222
▁국	-9.4135
▁시리즈	-9.41398
홍	-9.41438
▁당장	-9.41447
냥	-9.4154
▁ᄋᄋ	-9.41593
끄	-9.41793
▁눈에	-9.41885
전에	-9.41899
거에요	-9.41899
겠	-9.41939
▁the	-9.42056
들과	-9.42161
▁말하는	-9.42244
▁스트레스	-9.42325
▁인정	-9.4233
주의	-9.42342
▁재밌다	-9.42401
▁사과	-9.42474
암	-9.42503
▁재밌	-9.42533
h	-9.42546
▁오는	-9.42633
앗	-9.4265
짝	-9.42734
짤	-9.42755
▁지금까지	-9.42863
있어	-9.42869
▁밀	-9.42897
쪽	-9.43021
▁않아	-9.43123
▁instafood	-9.43204
풍	-9.43233
▁블랙	-9.43265
▁괜히	-9.43434
▁일을	-9.43606
▁숨	-9.43609
▁월요일	-9.43676
▁감사	-9.43848
▁평생	-9.43886
보기	-9.43904
▁꿀	-9.43938
▁않는다	-9.43945
▁훨씬	-9.43967
▁에이	-9.43987
▁아침부터	-9.44029
거같은데	-9.44039
▁색	-9.44123
▁챙겨	-9.4413
▁안되는	-9.44147
▁화이팅	-9.44159
거임	-9.44294
▁상태	-9.44404
▁십	-9.44448
M	-9.4447
째	-9.44495
▁나이	-9.44574
찍	-9.44625
▁행복해	-9.44741
션	-9.44764
련	-9.44866
쟈	-9.44893
▁가득	-9.44961
▁미리	-9.44962
▁아이고	-9.44981
놀	-9.44989
▁엉엉	-9.4508
▁왜케	-9.45122
▁왔	-9.45129
▁심장	-9.45177
▁장난	-9.45183
욕	-9.45316
줌	-9.45337
▁억	-9.45404
에서도	-9.45418
▁유명한	-9.45439
▁사람을	-9.45545
P	-9.45589
▁어떡해	-9.4559
▁털	-9.45683
▁읽고	-9.45746
▁생각해	-9.4577
버림	-9.45785
▁T	-9.45799
▁하니까	-9.45818
졌다	-9.45827
▁안돼	-9.45837
▁라면	-9.45852
▁만난	-9.45886
는걸	-9.45895
얘기	-9.45975
▁그치만	-9.4624
▁하는거	-9.46322
시면	-9.46349
▁까지	-9.46372
▁하루종일	-9.46378
▁옛날	-9.46401
▁생긴	-9.46485
▁히히	-9.46529
옹	-9.46536
말고	-9.46565
딩	-9.46641
▁니가	-9.46775
▁영화의	-9.46808
▁b	-9.46832
일까	-9.46849
▁데일리	-9.46901
▁뭔지	-9.46931
▁않을까	-9.4699
하시는	-9.47077
게임	-9.47089
보단	-9.47094
▁교	-9.4713
거라	-9.47183
▁표	-9.47209
맥	-9.47228
이었는데	-9.47235
잼	-9.47318
▁g	-9.47491
식당	-9.47516
▁신상	-9.47566
ᅲᅲᅲᅲᅲᅲᅲᅲᅲᅲᅲᅲᅲᅲᅲᅲ	-9.47584
▁싫다	-9.47653
먹는	-9.47695
▁존맛	-9.4774
▁갖고	-9.47785
하신	-9.47915
▁ᄌᄂ	-9.47966
팀	-9.48026
▁생각하는	-9.48098
기만	-9.48154
하시	-9.48182
▁아예	-9.48251
▁향	-9.48269
잠	-9.48299
▁맞아요	-9.48324
그냥	-9.48325
▁하게	-9.48365
▁카드	-9.48384
▁고생	-9.48435
▁투표	-9.48517
▁두개	-9.48553
▁힘든	-9.48699
▁팀	-9.48811
▁수준	-9.49014
▁왠지	-9.49079
▁약속	-9.49083
성이	-9.49084
▁라는	-9.4909
▁당연히	-9.49108
▁맨	-9.49128
▁네이버	-9.49196
▁말도	-9.49343
▁먹으면	-9.49565
▁곡	-9.49591
▁발견	-9.49599
▁번째	-9.49691
▁여전히	-9.49736
▁했더니	-9.49785
▁이유가	-9.4981
▁좆	-9.49867
▁늦게	-9.49911
f	-9.49955
▁천재	-9.50094
▁다리	-9.50119
▁혼	-9.50126
스러운	-9.50163
능	-9.50198
없다	-9.50262
난다	-9.5034
▁모르고	-9.5036
▁있던	-9.50363
하는게	-9.5048
빨	-9.50557
▁뜻	-9.50599
▁감정	-9.50665
▁원작	-9.50748
▁질	-9.50808
▁I	-9.50818
▁s	-9.50906
▁웃	-9.50939
버려	-9.5099
좋은	-9.51139
▁자체가	-9.51218
▁졸	-9.51246
▁확인	-9.5125
▁질문	-9.51308
▁영화다	-9.51367
▁몰	-9.51413
▁마무리	-9.51446
▁북	-9.51496
리는	-9.51519
▁앞에서	-9.51527
닝	-9.51555
ᄏᄏᄏᄏᄏᄏᄏᄏᄏᄏᄏᄏᄏᄏ	-9.51593
했고	-9.51611
▁아들	-9.51634
▁아니지만	-9.51664
▁뿐	-9.51703
▁그나마	-9.51759
▁먼	-9.51866
▁찍은	-9.5187
▁흠	-9.51902
▁아깝다	-9.51919
변	-9.51935
▁작년	-9.51967
맘	-9.51975
▁겁나	-9.51996
▁장르	-9.52021
▁답	-9.52123
지금	-9.52145
털	-9.52147
▁좋음	-9.5217
▁방문	-9.52182
▁디저트	-9.52298
▁넌	-9.52303
▁뜨	-9.52352
▁대화	-9.52389
▁년대	-9.52399
▁직	-9.52414
▁여러	-9.52417
▁요리	-9.52426
▁눈물이	-9.52435
▁확실히	-9.52474
타임	-9.52508
▁빈	-9.52513
▁팔로우	-9.52681
▁현실	-9.52693
▁만족	-9.52808
▁씹	-9.52881
▁보게	-9.52897
▁가게	-9.52901
▁맥	-9.52906
혼	-9.52919
▁개월	-9.52921
완	-9.52923
겟	-9.53088
▁드는	-9.53145
▁ᄏᄏᄏᄏᄏᄏᄏᄏᄏᄏᄏᄏᄏᄏ	-9.53178
▁좋을	-9.5325
▁굉장히	-9.5329
▁날씨가	-9.5336
▁있나	-9.53463
▁페	-9.53481
w	-9.5353
였던	-9.53592
할까	-9.53638
▁구경	-9.53694
둘	-9.53706
▁님들	-9.53735
▁딱히	-9.53765
▁예뻐	-9.53843
흐	-9.53861
햇는데	-9.53885
▁교육	-9.53889
었	-9.53895
영상	-9.53904
▁진행	-9.54011
아님	-9.54025
님은	-9.5407
▁층	-9.54103
▁일주일	-9.54113
오늘	-9.54129
▁우유	-9.5427
▁올리	-9.54326
▁예상	-9.54335
우리	-9.54355
▁입니다	-9.54453
해라	-9.54502
득	-9.5456
▁실망	-9.54575
▁사람들은	-9.54663
다면	-9.54712
▁했	-9.5472
▁a	-9.54753
게요	-9.54806
몽	-9.54844
▁설명	-9.54848
되면	-9.54888
▁핫	-9.54889
구만	-9.54938
▁마니	-9.54939
▁의미	-9.5495
▁토요일	-9.54955
▁daily	-9.54998
▁왔는데	-9.55031
아이	-9.55096
▁W	-9.55156
▁마라	-9.55241
고요	-9.55327
연기	-9.5543
ᄌ	-9.55438
▁오후	-9.5544
X	-9.5552
▁얼	-9.55633
▁개웃겨	-9.55658
▁완	-9.55685
▁두고	-9.55757
룩	-9.55768
▁졸업	-9.55783
굴	-9.558
▁봐야	-9.55857
▁어쩔	-9.5589
▁넣어	-9.55925
ᄏᄏᄏᄏᄏᄏᄏᄏᄏᄏᄏᄏᄏ	-9.55999
G	-9.5602
습	-9.56053
▁금요일	-9.56184
▁중요한	-9.56208
▁같고	-9.56238
▁봉	-9.56257
▁나에게	-9.56374
효	-9.56385
▁도착	-9.56404
▁맛있게	-9.56408
▁d	-9.56421
▁돌려	-9.56445
▁일요일	-9.56482
▁군	-9.56526
▁그런가	-9.56561
▁기사	-9.56636
▁낮	-9.56636
▁끼	-9.56668
▁저기	-9.56677
▁탄	-9.56705
봤다	-9.56902
있음	-9.56905
밍	-9.56938
▁그려	-9.57003
▁이야기를	-9.57103
▁귀엽	-9.57108
▁잼	-9.57196
▁구매	-9.57288
럼	-9.57366
▁돌아	-9.57375
▁체	-9.57421
u	-9.57482
▁공포	-9.57593
▁안경	-9.57668
▁최근	-9.57752
▁실패	-9.57762
▁오픈	-9.57768
나라	-9.5781
▁상황	-9.57869
▁생각하면	-9.57961
였음	-9.5799
▁취	-9.58052
▁돈이	-9.58115
배우	-9.58184
▁c	-9.58198
럽	-9.58211
Y	-9.5823
▁우리는	-9.58264
▁엔딩	-9.58275
▁작가	-9.58321
foodporn	-9.58329
▁내용이	-9.58375
스토리	-9.5844
▁힘들	-9.58509
▁됩니다	-9.58548
▁되지	-9.58549
▁칼	-9.58555
▁당신	-9.58562
▁되는데	-9.58601
▁해주	-9.58789
▁나라	-9.58791
an	-9.58817
▁재밌는	-9.58962
▁블	-9.59046
▁꼴	-9.59052
▁대전	-9.59057
▁관련	-9.59311
▁땐	-9.59324
했지만	-9.59405
▁포스터	-9.5945
노래	-9.59508
▁감기	-9.59513
▁개인적으로	-9.59644
▁데뷔	-9.59736
▁비가	-9.59742
▁긴	-9.59842
▁가야	-9.59866
▁동물	-9.59896
보니까	-9.60109
견	-9.60142
▁죽어	-9.60192
▁관심	-9.60213
렁	-9.603
때마다	-9.60416
▁걸어	-9.6055
▁기본	-9.60632
총	-9.6065
가면	-9.60665
▁고마워	-9.60742
▁아이폰	-9.60836
겠어요	-9.60874
▁있었	-9.60876
▁저번에	-9.60882
욤	-9.60919
느낌	-9.6092
맞	-9.60949
▁마리	-9.61005
둥	-9.61086
파티	-9.61127
▁냠냠	-9.61147
or	-9.61172
▁언	-9.61176
▁보세요	-9.61241
헤	-9.61242
▁힐링	-9.61371
▁학	-9.61374
▁제목	-9.61383
▁달려	-9.61408
롤	-9.61437
▁food	-9.61483
▁보이	-9.61662
A	-9.6173
릿	-9.61776
▁샘	-9.61805
조아	-9.61837
▁디자인	-9.61842
옥	-9.61858
▁ᄏᄏᄏᄏᄏᄏᄏᄏᄏᄏᄏᄏᄏᄏᄏ	-9.61864
리가	-9.61961
보이	-9.62018
▁푹	-9.62037
▁봐서	-9.6204
▁주말에	-9.6212
▁집중	-9.62134
린다	-9.62146
▁오히려	-9.6221
▁감독이	-9.62226
▁봤	-9.62251
힐	-9.62385
떠	-9.62433
▁확	-9.62463
응	-9.6247
▁생각하고	-9.62476
적이	-9.6249
육	-9.62505
훈	-9.62557
남자	-9.62696
▁괜찮아	-9.62709
▁충격	-9.62714
▁그것도	-9.62729
황	-9.6281
▁녹	-9.62898
K	-9.629
선물	-9.62945
▁스타벅스	-9.62985
▁카톡	-9.63031
▁없네	-9.63066
▁ᄆ	-9.63095
▁즐거운	-9.63119
▁마음을	-9.63124
▁화장실	-9.63147
끝	-9.63202
▁쿠	-9.63212
le	-9.63213
님의	-9.63233
▁자기가	-9.63286
▁마이	-9.63362
답	-9.63375
겟다	-9.63519
보다는	-9.63523
▁했지만	-9.63551
치는	-9.63558
셔서	-9.63564
피자	-9.63589
▁몸이	-9.63595
▁남편	-9.6362
▁찬	-9.63627
▁고소	-9.63659
▁끝나	-9.63712
▁메뉴	-9.63733
띠	-9.63778
▁어쩌구	-9.63779
휴	-9.63782
▁휴가	-9.63952
▁대한민국	-9.64047
st	-9.6406
나봐	-9.64098
▁빼고	-9.64142
▁난리	-9.64166
▁앤	-9.64176
▁자신의	-9.64231
▁쏘	-9.64234
▁n	-9.64282
▁많아	-9.64299
▁사서	-9.64303
▁받	-9.64333
▁이해가	-9.64356
▁불러	-9.64378
▁p	-9.64393
줘서	-9.64453
▁공식	-9.64536
▁육	-9.64573
O	-9.64673
▁이유는	-9.64723
리스	-9.64738
▁우리나라	-9.6476
▁참여	-9.64777
싱	-9.64787
▁너무나	-9.64846
버리	-9.64848
▁갔다가	-9.64866
▁듣는	-9.6492
▁먹기	-9.64977
까진	-9.65026
W	-9.65052
▁실제로	-9.65146
▁알게	-9.6515
있어서	-9.652
▁주세요	-9.65218
▁쪽	-9.65269
▁본인	-9.65314
▁내려	-9.65322
▁돼지	-9.6534
▁교수님	-9.65366
▁사회	-9.65368
▁활동	-9.65406
왔다	-9.65414
▁단어	-9.65434
▁뒷	-9.65467
▁웃음	-9.65551
▁밤에	-9.65564
넹	-9.6557
▁척	-9.65585
▁인사	-9.65593
▁이쁜	-9.65642
▁한남	-9.65684
▁찌	-9.65739
하냐	-9.6579
▁프	-9.65858
분이	-9.65918
▁책을	-9.66054
▁감성	-9.66068
해줘	-9.66073
▁평	-9.66251
도록	-9.66256
▁하자	-9.66266
없어	-9.66295
대요	-9.66378
▁계	-9.66424
떡볶이	-9.66522
▁H	-9.6655
▁테	-9.66603
시장	-9.66644
H	-9.66644
▁연습	-9.66648
▁뻔	-9.6669
다리	-9.66769
▁지하철	-9.66796
▁마지막에	-9.66819
핑	-9.66874
걸까	-9.66888
U	-9.66978
어야	-9.66994
▁섹스	-9.6701
▁자유	-9.67023
틀	-9.67028
▁마감	-9.67032
ar	-9.67058
이냐	-9.67105
▁따뜻한	-9.67125
씬	-9.67158
놀이	-9.67193
해주	-9.67227
▁마치	-9.67307
인데요	-9.67333
있고	-9.67377
▁나쁜	-9.67377
▁필	-9.67388
ᄇ	-9.67394
쌤	-9.6742
▁덕	-9.6746
▁해야지	-9.67491
▁먹었	-9.67505
라구	-9.67532
니깐	-9.67576
▁춤	-9.67585
▁in	-9.67602
그리고	-9.67674
▁소식	-9.67697
▁전쟁	-9.67716
▁침	-9.67794
▁필요한	-9.67885
▁화장	-9.67894
엠	-9.67899
▁가진	-9.67984
▁관계	-9.67998
▁그런지	-9.68003
▁저랑	-9.68095
▁리뷰	-9.68099
▁앙	-9.68125
▁자랑	-9.68148
▁뛰어	-9.68186
겜	-9.68198
▁거지	-9.68208
웅	-9.68218
▁마시고	-9.68221
▁자연	-9.68281
많이	-9.68286
왔	-9.68297
▁그랬	-9.6835
▁우주	-9.68379
▁행사	-9.68387
▁결정	-9.68447
▁배우들	-9.68498
▁그러면	-9.68552
씨발	-9.68606
ᅲᅲᅲᅲᅲᅲᅲ	-9.68609
▁예정	-9.68637
▁받는	-9.68659
ᄉᄇ	-9.68664
▁없었다	-9.68693
▁공간	-9.68712
그러	-9.68781
▁소개	-9.68839
▁개인	-9.68844
었어	-9.68859
▁시간을	-9.68909
엿	-9.68918
▁내일은	-9.68947
는중	-9.68966
▁애인	-9.6902
최고	-9.69091
겠죠	-9.69144
▁적이	-9.69154
▁아무튼	-9.69162
▁하이	-9.6928
슴	-9.69308
▁많다	-9.69339
▁시절	-9.69472
이니	-9.69491
▁웅	-9.69536
▁추억	-9.69553
하긴	-9.69601
▁떠나	-9.69609
▁디엠	-9.69734
항	-9.69744
만두	-9.69769
▁햇	-9.69829
▁해결	-9.6983
▁없어요	-9.69891
둔	-9.6997
▁석	-9.69997
졌	-9.70017
▁얼굴이	-9.70032
덜	-9.7004
▁작	-9.70054
▁그러나	-9.70111
▁경험	-9.70131
ri	-9.70181
ᅮᅮᅮ	-9.70189
▁짓	-9.70225
딱	-9.70275
더라고요	-9.70288
▁오타쿠	-9.70316
▁있었던	-9.70386
지요	-9.70398
▁조합	-9.70535
v	-9.70628
같	-9.70636
착	-9.70668
▁ᅡ	-9.70739
한다는	-9.70753
었어요	-9.70767
▁행	-9.70839
▁이후	-9.70852
팩	-9.70882
▁안나	-9.7089
이거	-9.70896
이런	-9.70905
▁쉽게	-9.70934
▁죽을	-9.70956
컷	-9.70978
▁방법	-9.70988
었음	-9.70994
▁말씀	-9.71005
▁안하고	-9.71106
▁중간에	-9.71147
렸다	-9.71169
▁샤	-9.71174
▁엘	-9.71238
▁알아서	-9.71268
봐도	-9.71311
▁핸드폰	-9.71361
▁이번주	-9.71411
돼	-9.71444
▁근	-9.71511
▁드림	-9.71646
▁없지만	-9.71788
▁전개	-9.71879
▁마카롱	-9.71901
▁아니냐	-9.72003
▁남성	-9.72019
▁되었다	-9.72119
▁괜찮	-9.72128
▁감독의	-9.72173
▁같습니다	-9.7222
▁위로	-9.72351
▁코미디	-9.72367
뒤	-9.7238
▁학원	-9.7247
겠네	-9.72484
▁기다려	-9.72559
드리	-9.72626
▁글을	-9.7267
▁팔로	-9.7272
▁뽀	-9.72796
▁스타일	-9.72801
여자	-9.72809
족	-9.72816
▁수능	-9.72892
▁포기	-9.72905
▁나오면	-9.72964
▁작업	-9.72968
▁엔	-9.73178
▁지랄	-9.73195
라떼	-9.73216
▁이것도	-9.73218
▁이름이	-9.73229
▁귀엽고	-9.73278
▁E	-9.73363
▁검색	-9.73372
▁R	-9.73405
▁브	-9.7341
▁커플	-9.73481
학교	-9.73484
미친	-9.73492
▁신청	-9.73494
ᅲᅮ	-9.73503
▁류	-9.7352
몬	-9.73575
그래	-9.73607
말이	-9.73611
▁엄마랑	-9.73629
낸	-9.73683
템	-9.73863
겠어	-9.73881
▁과자	-9.73913
층	-9.73965
이라면	-9.74
오는	-9.74094
▁만들고	-9.74138
▁지구	-9.7417
부분	-9.74173
E	-9.74179
▁정보	-9.74197
▁맞다	-9.74219
▁잠시	-9.74256
▁인형	-9.74274
▁케이크	-9.74296
▁힘들다	-9.74334
▁김치	-9.74366
으며	-9.74367
▁가사	-9.74368
▁워	-9.74452
▁살고	-9.74468
▁반전	-9.7457
▁미쳐	-9.74599
▁이러고	-9.74601
▁여수	-9.74615
읍니다	-9.74641
▁높은	-9.74655
▁부탁	-9.74685
▁블락	-9.74696
▁읽어	-9.74719
▁ᄃ	-9.74729
거같아	-9.74747
▁예쁘다	-9.74749
▁흥	-9.74749
▁누나	-9.74775
튼	-9.74782
▁잡아	-9.74808
▁일어나서	-9.74845
랄	-9.74853
▁뭔데	-9.74857
▁굿즈	-9.74871
▁경구	-9.74909
▁벚꽃	-9.74936
▁f	-9.74949
리고	-9.75201
▁한다고	-9.75206
랭	-9.75222
본다	-9.75296
▁든다	-9.75342
▁m	-9.75348
▁보여	-9.75407
톤	-9.75469
▁며칠	-9.7557
▁어깨	-9.75626
▁가방	-9.75672
▁먹고싶다	-9.75697
▁엄	-9.75721
욱	-9.75734
▁야식	-9.75737
사람들	-9.75743
▁유리	-9.75781
▁예술	-9.75838
자고	-9.75839
▁칠	-9.75902
▁감자	-9.76015
▁지나	-9.76052
▁과연	-9.76089
했다고	-9.76114
▁지금도	-9.76118
▁힘들어	-9.76139
▁한달	-9.76216
이제	-9.76223
댜	-9.76241
빛	-9.76332
▁낫	-9.76361
이죠	-9.76369
▁나옴	-9.76408
▁스스로	-9.76435
▁to	-9.76451
▁굴	-9.76458
▁때가	-9.76477
▁잠이	-9.76485
▁있다면	-9.76504
▁이어	-9.76511
▁일어나	-9.76574
으면서	-9.76581
보세요	-9.7659
▁무리	-9.76597
쟁이	-9.76617
▁두번째	-9.7665
▁곳이	-9.76662
▁점이	-9.76725
▁파는	-9.76739
▁도전	-9.76763
▁감사해요	-9.76773
교육	-9.76775
▁설마	-9.76797
▁결과	-9.76833
▁걸로	-9.76843
▁애들이	-9.76861
▁진짜로	-9.76886
▁공유	-9.76902
▁부르	-9.76912
▁해주세요	-9.76927
ᅣ	-9.76938
▁그린	-9.76939
▁한시간	-9.76972
했으면	-9.77035
려면	-9.77065
하라	-9.77067
▁쇼	-9.7707
▁마라탕	-9.77083
▁쪼	-9.77115
▁교회	-9.77191
랴	-9.77195
▁나왔	-9.77208
▁일정	-9.77269
▁받을	-9.77314
V	-9.77339
▁ᅲᅲᅲᅲᅲᅲ	-9.77393
▁미니	-9.77428
달라고	-9.77495
츄	-9.77504
힘	-9.77537
례	-9.77546
같다	-9.77556
▁귀여워서	-9.77619
카드	-9.77624
검	-9.77664
▁때는	-9.77685
그리	-9.77771
▁컨셉	-9.77814
ed	-9.77816
님이랑	-9.77849
▁솔	-9.77849
▁아무래도	-9.77859
▁많고	-9.77934
엄	-9.77942
▁저두	-9.77983
뮤	-9.77994
았다	-9.78021
▁인기	-9.78099
▁예약	-9.781
▁가격	-9.78117
없음	-9.78277
랜	-9.78358
▁이미지	-9.78372
▁멀	-9.7841
N	-9.78411
▁주변	-9.78447
벨	-9.7845
음식	-9.78566
▁완성	-9.78605
▁이후로	-9.78657
▁담배	-9.78748
초코	-9.78816
▁국민	-9.78817
▁많은데	-9.78829
▁소통	-9.7884
최	-9.7888
버스	-9.78905
▁요즘은	-9.78997
▁삶	-9.79035
렸	-9.79045
▁난다	-9.79058
▁두번	-9.79111
▁거기서	-9.79155
▁호텔	-9.79214
▁대통령	-9.79228
en	-9.79249
▁번역	-9.7925
해주는	-9.79261
흥	-9.79275
액	-9.7933
▁매번	-9.79362
스터	-9.79363
▁짐	-9.79407
일이	-9.79407
박스	-9.79425
뉴	-9.79462
▁웃기	-9.79492
햇다	-9.79538
▁발표	-9.79577
▁존버	-9.79655
듀	-9.79734
▁찍고	-9.79742
▁널	-9.79856
뻔	-9.79935
z	-9.79943
▁않다	-9.80016
▁만큼	-9.80023
이상	-9.80039
▁The	-9.80241
인간	-9.8031
▁제작	-9.80349
▁응원	-9.80349
ᄒᄒᄒ	-9.80453
▁쿠키	-9.80515
▁썰	-9.80516
▁할머니	-9.80518
▁인간이	-9.80571
▁O	-9.80575
▁저게	-9.80583
갑	-9.80619
▁처음으로	-9.80632
투어	-9.80694
폰	-9.80703
▁반응	-9.80725
▁슬	-9.80727
▁사이에	-9.80734
흑	-9.80743
럴	-9.80768
▁예쁘	-9.80773
헌	-9.80809
▁어린	-9.8081
▁닭	-9.8082
얼굴	-9.80884
▁파티	-9.80903
i	-9.80955
샘	-9.81062
자리	-9.81097
▁특	-9.81157
▁넣고	-9.81212
▁생각했는데	-9.81282
함이	-9.81312
▁다음에	-9.8133
▁머야	-9.81332
▁리얼	-9.81338
▁그렇고	-9.81364
▁꺼	-9.81374
▁건데	-9.81457
▁너는	-9.81464
▁시도	-9.81477
▁가능한	-9.81496
▁갔다	-9.81546
▁유튜브	-9.81563
드라	-9.81567
▁딴	-9.81578
▁롤	-9.81598
▁구성	-9.8162
▁사건	-9.81624
▁냄새	-9.81636
쏘	-9.81647
▁시나리오	-9.81691
봤	-9.81722
▁갔는데	-9.8178
낼	-9.81804
촌	-9.81806
받	-9.81808
▁충분히	-9.81882
▁루비	-9.81916
삭	-9.81919
on	-9.81923
나무	-9.81961
이래	-9.81969
▁경우	-9.81974
땜에	-9.82038
▁사진을	-9.82068
고싶어	-9.82082
▁상당히	-9.82096
▁문제가	-9.82099
▁잔뜩	-9.82111
축	-9.82132
조차	-9.82177
▁잇는	-9.82187
두고	-9.8221
거같음	-9.82275
▁통해	-9.82296
▁녹차	-9.82324
준비	-9.82342
사람이	-9.82343
시다	-9.82351
▁어려운	-9.82373
▁더욱	-9.82432
▁모르겠지만	-9.82484
했을	-9.82549
▁들어서	-9.82607
▁문화	-9.82643
▁싹	-9.82689
▁최악	-9.82693
▁참고	-9.82754
▁풀어	-9.82771
대서	-9.82794
▁눈치	-9.82895
▁아래	-9.83025
▁관리	-9.83067
re	-9.8307
▁빛	-9.83072
▁적당히	-9.83118
▁가기	-9.83127
▁노트북	-9.8318
▁파스타	-9.83181
해지는	-9.83196
▁뭐라	-9.83268
▁편집	-9.83318
셨	-9.83324
쓸	-9.83345
▁생활	-9.83377
▁풍	-9.83392
▁월에	-9.83392
빙	-9.83408
▁소재	-9.83415
▁보지	-9.83421
▁남는	-9.83428
가족	-9.83517
▁미세먼지	-9.83582
▁follow	-9.83613
▁L	-9.83619
▁에어컨	-9.83739
시고	-9.83803
는디	-9.83844
인이	-9.83853
▁새벽에	-9.83873
▁뮤지컬	-9.83894
▁라이브	-9.83917
▁계획	-9.83918
▁없다고	-9.83919
▁아저씨	-9.8393
▁콩	-9.83942
▁아닙니다	-9.83949
▁싶어요	-9.83975
▁재미있게	-9.84002
▁영업	-9.84021
▁손가락	-9.8403
▁플	-9.8414
콩	-9.84147
▁그러니까	-9.84192
▁이태원	-9.8431
▁희	-9.84343
수업	-9.84385
▁꺼내	-9.84476
▁뉴	-9.84477
▁천사	-9.84479
▁오면	-9.8448
▁그렇다	-9.84495
▁다양한	-9.84524
▁그동안	-9.84575
▁쥬	-9.84583
택	-9.84622
▁인터뷰	-9.8465
▁믿고	-9.84741
이든	-9.84839
▁않나	-9.84841
▁생각나	-9.84874
▁운	-9.84885
룸	-9.84971
▁애초에	-9.84988
▁아나	-9.84994
▁골	-9.85027
▁있게	-9.85036
▁공개	-9.85052
▁건지	-9.85059
젤	-9.85098
였어	-9.85133
▁행동	-9.85162
▁없으면	-9.85215
▁역사	-9.85218
▁찾	-9.85227
야겠다	-9.85243
▁허리	-9.85256
▁케	-9.85256
을듯	-9.85343
농	-9.85353
▁만두	-9.85411
큰	-9.85481
▁신경	-9.85495
▁것들	-9.85529
▁부분이	-9.85552
왔는데	-9.85604
▁신발	-9.85615
까봐	-9.85656
닉	-9.8572
함을	-9.85725
▁겸	-9.85753
▁홈	-9.85774
끈	-9.85777
▁차이	-9.85848
이야기	-9.85888
▁인터넷	-9.85922
먹어	-9.85953
잇는	-9.85986
▁웃긴	-9.86042
▁과일	-9.86054
▁한참	-9.86054
▁넘어	-9.86131
니가	-9.86142
▁옥	-9.86164
▁먹어야	-9.86182
▁고구마	-9.86192
혁	-9.86271
▁프랑스	-9.86274
폭	-9.86278
▁최악의	-9.86285
▁몬	-9.86302
탑	-9.86404
▁정치	-9.86461
▁뭐라고	-9.86553
▁눈을	-9.86558
▁들어간	-9.86669
▁하트	-9.86672
▁느끼	-9.867
닭	-9.86715
▁삐	-9.86729
▁끝내	-9.86733
▁이번엔	-9.86734
▁재밋	-9.86736
▁바지	-9.86754
▁강남	-9.86758
▁슬픈	-9.86765
자는	-9.86803
▁출	-9.86896
▁ᅳ	-9.86967
받고	-9.86977
▁웃기다	-9.87051
▁그렇다고	-9.87057
▁포스팅	-9.87099
았	-9.87158
▁X	-9.87184
칭	-9.87199
▁나무	-9.87272
▁나왔다	-9.87279
던가	-9.87285
▁스타	-9.8729
▁무서운	-9.8731
▁시간에	-9.87328
하다고	-9.8735
버거	-9.87389
픽	-9.87407
▁코난	-9.87418
▁예쁘게	-9.8744
▁뮤비	-9.87459
있어요	-9.87474
공원	-9.87479
▁추석	-9.87494
놓은	-9.87508
려나	-9.87525
▁수영	-9.87588
▁너네	-9.87603
율	-9.87636
▁ᄌ	-9.8765
▁비밀	-9.87653
들고	-9.87658
▁근처	-9.87662
▁어쩜	-9.87683
이었던	-9.87777
▁세상에서	-9.87844
▁성격	-9.87878
▁경찰	-9.87899
▁머리가	-9.87906
▁옆	-9.87933
▁아오	-9.88021
▁대표	-9.88043
▁일에	-9.88123
▁끊	-9.88138
제가	-9.88206
▁먹부림	-9.88206
▁최근에	-9.88282
시작	-9.88302
▁k	-9.88347
갔	-9.88355
▁출연	-9.8836
▁되었	-9.8838
같은거	-9.88397
▁읽	-9.88429
▁홍콩	-9.8843
▁더워	-9.88504
억	-9.88636
같아	-9.88665
듬	-9.88696
않	-9.88754
렷	-9.88788
▁귀여움	-9.88792
▁종이	-9.88831
센	-9.88882
▁새끼	-9.88964
솔	-9.89002
▁아이들	-9.89015
▁싶었는데	-9.89017
▁슈퍼	-9.89019
▁없지	-9.89047
▁뭐냐	-9.8906
▁똑같은	-9.89062
▁빠져	-9.89083
▁홀	-9.89134
▁성장	-9.89161
▁갔	-9.89177
▁바라	-9.89206
▁돌아가	-9.89216
을텐데	-9.89293
▁화면	-9.89315
▁겜	-9.8936
거같다	-9.89361
짜리	-9.89376
▁싫	-9.89442
영이	-9.89511
▁주년	-9.89533
▁힘이	-9.89568
▁평가	-9.89572
갈비	-9.89635
▁토끼	-9.89667
▁아아	-9.89748
▁스릴러	-9.89781
▁바보	-9.89802
▁언급	-9.89893
▁유지	-9.90019
▁깔	-9.90053
딸	-9.90094
▁등장	-9.90094
시켜	-9.90113
보내	-9.90122
엇다	-9.9018
▁이불	-9.90199
▁매력	-9.90214
샵	-9.90251
문제	-9.90282
섭	-9.90295
세트	-9.90384
▁렌즈	-9.90401
▁초콜릿	-9.90411
▁죄송합니다	-9.90503
▁새우	-9.90515
▁땀	-9.90654
▁학년	-9.90685
▁배경	-9.90699
감독	-9.90711
▁못해	-9.90727
▁배가	-9.9075
▁좋아해	-9.90797
한번	-9.90809
▁느끼는	-9.90913
힌	-9.90993
▁먼가	-9.90999
▁콘	-9.91143
▁옴	-9.91157
▁포장	-9.91167
▁지원	-9.91184
리아	-9.9132
꿈	-9.91327
▁사장님	-9.91348
▁울고	-9.9138
보자	-9.91501
▁나온다	-9.91523
축제	-9.91527
R	-9.91545
▁이사	-9.91611
▁거리	-9.91711
▁청주	-9.91728
▁우와	-9.91836
▁걔	-9.91859
▁계란	-9.91915
▁다르	-9.91926
생활	-9.92006
지를	-9.92078
▁됐	-9.92087
▁왜이렇게	-9.92102
젠	-9.92107
▁동시에	-9.92142
▁하루에	-9.92144
대박	-9.9217
▁축하	-9.9217
이름	-9.92204
끔	-9.92224
칼	-9.92228
▁썼	-9.92253
▁거예요	-9.92284
특	-9.92285
▁아프	-9.92294
▁봤던	-9.92311
▁기록	-9.92354
▁신고	-9.9238
▁이러	-9.9246
▁당시	-9.9258
하실	-9.92594
▁웃김	-9.92595
▁홍보	-9.92609
▁엄청난	-9.92624
▁재미가	-9.92653
▁시바	-9.9266
타고	-9.92695
텐데	-9.92697
▁도쿄	-9.92709
▁모자	-9.92712
j	-9.92735
▁미안	-9.92742
▁일반	-9.92749
▁그렇지	-9.92902
▁핵	-9.92976
▁보여주	-9.92986
▁년에	-9.93031
하거나	-9.93059
▁이모	-9.93157
▁입에	-9.93158
▁ᄆᄎ	-9.93159
ᄐ	-9.93188
▁보고싶	-9.93196
켜	-9.93202
▁군대	-9.93258
▁클	-9.93273
▁좋지	-9.93288
계정	-9.93365
봐서	-9.93393
▁있는거	-9.93395
주면	-9.93421
▁자는	-9.93429
▁만나서	-9.93449
▁몽	-9.93457
▁밍	-9.93464
▁본다	-9.93483
봐야	-9.93499
▁슬기	-9.93551
▁있나요	-9.93583
▁프리	-9.93605
고싶	-9.93632
거라고	-9.93663
▁셋	-9.93699
▁좋았던	-9.93776
▁금방	-9.93871
▁않았다	-9.93896
주셔서	-9.93916
▁잡고	-9.93967
▁팬싸	-9.94137
컵	-9.94203
▁자신	-9.94209
▁가자	-9.94209
놈들	-9.9423
했더니	-9.94241
▁예매	-9.9426
▁그렇	-9.94333
프로	-9.9439
▁사람도	-9.9441
홀	-9.94453
▁반복	-9.94459
▁다니는	-9.94499
▁연어	-9.94545
셧	-9.94561
▁마세요	-9.94565
▁맛있어	-9.94582
▁돈을	-9.94588
▁인장	-9.94647
됐	-9.94662
▁우울	-9.94676
▁헤헤	-9.94717
▁않음	-9.94778
▁알았	-9.94835
▁웃는	-9.94905
▁아픈	-9.94937
▁든	-9.94941
▁합	-9.94971
▁이럴	-9.94976
▁아버지	-9.94983
▁등등	-9.95008
는것도	-9.95032
내요	-9.95093
장면	-9.95171
▁위해서	-9.95223
되지	-9.95236
▁양도	-9.95242
▁아악	-9.95264
성을	-9.95371
▁포인트	-9.9538
▁국내	-9.95382
▁뒤로	-9.95402
▁손에	-9.95405
▁샐러드	-9.95528
▁겨우	-9.95549
지가	-9.9555
el	-9.95553
▁떨	-9.95558
▁핑크	-9.95564
▁from	-9.95596
것이	-9.95679
▁커뮤	-9.95698
다보니	-9.957
▁스티커	-9.95789
▁바꿔	-9.95813
▁과거	-9.959
▁방학	-9.95918
▁모임	-9.96006
▁사진이	-9.9601
▁탑	-9.96023
▁착한	-9.96049
탱	-9.96064
▁하나만	-9.96074
▁버터	-9.96159
좋다	-9.96174
▁취소	-9.96235
값	-9.96256
▁및	-9.96326
▁포카	-9.96335
▁남겨	-9.96359
수도	-9.96372
거같	-9.96411
겟지	-9.96431
듯이	-9.96478
멘	-9.96494
▁작가님	-9.96504
▁나오고	-9.96526
▁N	-9.96536
▁와중에	-9.96542
▁당황	-9.96583
칸	-9.96588
▁삼겹살	-9.9661
▁조아요	-9.967
이요	-9.96701
es	-9.96738
▁대답	-9.96788
▁소비	-9.968
▁먹었다	-9.9694
땅	-9.96945
▁짜증나	-9.96982
▁축하해	-9.97009
귀여워	-9.97091
▁비행기	-9.97114
▁J	-9.97129
▁자신이	-9.97166
▁들어오	-9.97179
▁이틀	-9.97215
묵	-9.97238
▁깜짝	-9.97251
▁내게	-9.97303
▁있어야	-9.97313
▁하니	-9.97335
▁치고	-9.97362
▁진심으로	-9.97362
▁나두	-9.97372
▁블루	-9.97385
▁전공	-9.97405
▁결말	-9.97447
뷰	-9.97523
▁티비	-9.97548
▁전주	-9.97575
▁식사	-9.97608
▁like	-9.97631
▁밑에	-9.97635
거면	-9.97665
▁떼	-9.97719
▁분들이	-9.97722
드는	-9.97746
▁볼때마다	-9.97808
볼까	-9.97844
me	-9.97856
인스타푸드	-9.9786
▁만들었	-9.97878
활	-9.97925
▁빨	-9.97926
내고	-9.97942
▁컴	-9.98011
▁논	-9.98043
랩	-9.98051
깔	-9.98053
▁내리	-9.9813
▁한잔	-9.98152
▁위치	-9.98248
겠다고	-9.98258
▁학생	-9.98334
▁제품	-9.9837
▁흰	-9.98384
▁비교	-9.98444
▁맞춰	-9.98506
▁입장	-9.98532
▁저녁에	-9.98534
▁청소	-9.98571
뇨	-9.98585
▁감상	-9.98621
애들	-9.98755
별로	-9.98758
▁생각나서	-9.98769
▁지역	-9.98781
내용	-9.98863
▁생기	-9.98898
▁사랑을	-9.98907
감이	-9.98924
▁눈물나	-9.99058
▁죄	-9.99086
몸	-9.99125
▁것처럼	-9.99146
▁복숭아	-9.99191
붙	-9.99211
▁최고다	-9.99212
▁입술	-9.99245
▁휘	-9.99306
▁말할	-9.9935
꾼	-9.99377
좌	-9.99394
▁보리	-9.99395
▁검	-9.99421
▁목표	-9.99423
엇는데	-9.99455
▁하시	-9.99524
▁진정	-9.99564
네여	-9.99572
▁않아서	-9.99606
요ᅲᅲ	-9.99675
엄마	-9.99698
▁국가	-9.99708
▁한번도	-9.99743
릭	-9.99756
새끼들	-9.99774
▁하나씩	-9.99809
▁해피	-9.99812
▁한강	-9.9983
갔다	-9.99867
▁생각나는	-9.9987
눈물	-9.99873
▁달라	-9.99914
펜	-9.99928
▁두부	-9.99952
▁h	-9.99955
▁들을	-10.0001
▁빨간	-10.0003
▁애가	-10.0003
▁일케	-10.0006
이며	-10.0009
탐	-10.0011
▁생겼	-10.0011
▁포함	-10.0014
텐	-10.0021
ol	-10.0024
▁모습이	-10.0025
▁언니가	-10.0028
it	-10.003
▁레몬	-10.0031
그림	-10.0032
▁모르	-10.0033
▁이제는	-10.0034
잔아	-10.0036
▁모습을	-10.0038
▁마싯	-10.0041
하고싶다	-10.0046
랜드	-10.0048
마음	-10.0049
야하는데	-10.0049
▁혹은	-10.0054
▁택배	-10.0054
▁멍	-10.0058
▁주연	-10.0058
▁애니메이션	-10.0061
▁예나	-10.0062
▁습	-10.0066
▁컬러	-10.0066
▁예쁘고	-10.0069
▁하네요	-10.0072
소스	-10.0074
▁곰	-10.0076
▁받았	-10.0086
님도	-10.0088
▁샀	-10.0091
▁올라가	-10.0094
묘	-10.0096
▁삶을	-10.0098
▁랩	-10.0098
▁풍경	-10.01
접	-10.0101
▁있으니	-10.0101
▁친구랑	-10.0106
콜	-10.011
래요	-10.0112
▁의심	-10.0114
▁이영화	-10.0122
▁좋네	-10.0128
해진	-10.013
김밥	-10.0131
▁들었다	-10.0133
▁foodstagram	-10.0133
▁스포	-10.0135
▁궁금	-10.0137
▁것만	-10.0139
▁아닐	-10.0142
완전	-10.0145
ᅭ	-10.0145
▁이리	-10.0146
▁연기가	-10.0153
▁안되	-10.0153
돌아	-10.0155
▁자전거	-10.0155
▁설레	-10.0156
▁지내	-10.0157
▁있네	-10.0158
▁헤어	-10.0166
거예요	-10.0167
▁타래	-10.0167
▁지지	-10.0169
▁예전	-10.017
▁다이어터	-10.0172
▁이것저것	-10.0172
한게	-10.0173
▁의사	-10.018
▁캐스팅	-10.0183
사는	-10.0188
▁대단한	-10.0193
▁바꾸	-10.0193
▁프로그램	-10.0197
▁물건	-10.0199
라인	-10.0202
▁분노	-10.0202
▁햄	-10.0203
▁부터	-10.0204
받아	-10.0204
▁일은	-10.0206
▁맛은	-10.0207
럿	-10.0215
▁영화에	-10.0221
▁경기	-10.0224
▁한명	-10.0226
▁야구	-10.0228
빌	-10.0229
▁현대	-10.0236
럭	-10.0238
▁실화	-10.0239
▁줘	-10.024
▁싶고	-10.0246
▁남의	-10.0254
▁먹어도	-10.0256
▁완벽한	-10.0258
버릴	-10.0258
트리	-10.026
▁짜증	-10.0264
떼	-10.0264
▁무릎	-10.0264
▁RT	-10.0266
▁어머니	-10.0268
▁냉	-10.0269
▁서치	-10.027
▁한다는	-10.027
▁원하는	-10.0273
et	-10.0273
▁무서워	-10.0278
▁기도	-10.0287
▁가야지	-10.029
▁퀴어	-10.029
▁우리의	-10.03
이긴	-10.0305
▁숙소	-10.0305
▁좋아하는데	-10.0306
▁그러고	-10.0307
안에	-10.0309
▁한국인	-10.0314
▁컴백	-10.0318
▁갈수록	-10.0321
것같다	-10.0326
▁사랑이	-10.0331
똥	-10.0336
▁스토리가	-10.0342
킨	-10.0343
▁아니라고	-10.0344
가능	-10.0345
▁배달	-10.0345
▁혜	-10.0347
▁않게	-10.035
▁그날	-10.0351
▁특유의	-10.0352
▁서비스	-10.0361
요리	-10.0362
었습니다	-10.0362
워서	-10.0363
▁같기도	-10.0364
균	-10.0367
▁빅	-10.0369
랏	-10.0371
▁자세	-10.0371
없어서	-10.0375
▁기억에	-10.0377
사이	-10.0378
▁가까운	-10.0378
▁해외	-10.0386
ᅮᅮᅮᅮ	-10.0387
▁티켓	-10.039
▁블로그	-10.0393
압	-10.0395
톡	-10.0398
칩	-10.0399
▁이용	-10.04
▁안된다	-10.0407
▁여유	-10.0409
▁아빠가	-10.041
▁할까	-10.0412
▁꺄	-10.0414
낫	-10.0414
거같아요	-10.0418
뽀	-10.0421
▁폭	-10.0426
▁만날	-10.0428
긴한데	-10.043
▁중간	-10.043
삐	-10.0431
▁건가	-10.0436
▁불금	-10.0443
▁보여주는	-10.0448
마리	-10.0452
▁하네	-10.0459
▁멤버	-10.046
▁고통	-10.0461
se	-10.0467
▁기다리	-10.047
사가	-10.0472
▁글고	-10.0474
▁of	-10.0475
따라	-10.0481
▁쭉	-10.0486
하라고	-10.0489
▁전시	-10.0489
▁실제	-10.0497
▁놈	-10.0506
▁년전	-10.0506
그런	-10.0509
놓	-10.0512
▁기능	-10.052
버리고	-10.0523
▁좋겠어요	-10.0525
▁동영상	-10.0526
▁으악	-10.0527
▁나머지	-10.0534
▁탐	-10.0542
▁소중한	-10.0547
▁슬퍼	-10.0554
▁갑	-10.0556
롬	-10.0557
보는데	-10.0559
▁하긴	-10.0563
▁아닌지	-10.0564
▁올리는	-10.0567
▁소고기	-10.0573
앞	-10.0574
아닌	-10.0577
아요	-10.058
싫어	-10.058
▁높	-10.0585
▁로맨스	-10.0587
ong	-10.0588
▁환	-10.0592
▁부르는	-10.0593
▁북한	-10.0596
▁쇼핑	-10.0597
▁모기	-10.0601
▁해보	-10.0609
▁이래서	-10.0609
▁공주	-10.0609
▁신기	-10.061
▁연성	-10.0612
▁아니에요	-10.0616
▁좋아해서	-10.0618
▁보고싶어	-10.0619
▁미래	-10.0632
▁싶지	-10.0632
▁먹었는데	-10.0633
둥이	-10.0635
▁자살	-10.0637
▁말투	-10.0644
▁천원	-10.0645
▁앱	-10.0648
▁아이스	-10.065
J	-10.0656
▁들어보세요	-10.0663
▁사람의	-10.0664
▁결제	-10.0666
▁쟤	-10.0668
는것	-10.067
봐요	-10.0671
▁저의	-10.0672
▁뻔한	-10.0672
죄	-10.0677
마저	-10.0678
▁서면	-10.0679
쓰고	-10.0684
▁V	-10.0685
저녁	-10.069
▁열어	-10.0691
고싶은	-10.0693
▁당근	-10.0693
드림	-10.0706
대는	-10.0707
▁듣	-10.0708
시대	-10.0711
▁식당	-10.0711
▁밥먹	-10.0715
춘	-10.0717
준다	-10.0721
오면	-10.0725
▁대부분	-10.0729
쿠키	-10.073
▁말은	-10.073
▁곱창	-10.0733
▁육아	-10.0736
▁재밌어	-10.0736
▁바나나	-10.0737
▁하구	-10.074
▁플레이	-10.0742
장이	-10.0747
▁ᅮᅮᅮ	-10.0749
▁아쉽다	-10.0749
▁뛰	-10.0758
▁이것	-10.0759
▁진정한	-10.0761
▁Sat	-10.0764
▁무료	-10.0772
정리	-10.0776
▁다니	-10.078
▁년이	-10.0784
틱	-10.0785
벤	-10.0792
▁칭찬	-10.0795
▁x	-10.0795
▁스벅	-10.0796
니까요	-10.0797
▁알려	-10.0799
▁다녀온	-10.0799
▁레이	-10.08
▁엑소	-10.0801
이렇게	-10.0803
▁전체	-10.0803
▁침대	-10.0803
▁편하게	-10.0804
들이랑	-10.0809
▁그룹	-10.081
다시	-10.0811
렉	-10.0815
▁연휴	-10.0824
▁늦	-10.0826
▁옆에서	-10.0831
▁대가리	-10.0834
▁능력	-10.0835
▁보인다	-10.0836
▁반성	-10.0836
▁넷플릭스	-10.0843
▁그것	-10.0843
념	-10.0843
▁있는지	-10.0845
▁효	-10.0845
닷	-10.0847
요ᅲ	-10.0849
먹을	-10.0849
시절	-10.0851
▁기념	-10.0851
▁영국	-10.0858
▁켜	-10.0859
▁TV	-10.086
▁달리	-10.0868
▁푸드스타그램	-10.0869
그래도	-10.087
했네	-10.0875
고싶은데	-10.0875
▁언젠가	-10.0876
▁때도	-10.0876
갯	-10.0876
▁시켜	-10.088
▁노잼	-10.0882
사실	-10.0882
▁이제야	-10.0886
▁오지	-10.0886
▁꾸준히	-10.0888
▁판매	-10.0891
▁본인이	-10.09
렴	-10.0903
혈	-10.0904
▁ᄂ	-10.0905
먹기	-10.0909
▁강추	-10.091
▁사이즈	-10.0911
▁연기력	-10.0912
▁연기도	-10.0917
▁좋네요	-10.0922
▁어린이	-10.0923
▁브이앱	-10.0925
봣	-10.0929
▁남자가	-10.0934
▁들어가서	-10.0935
ch	-10.0938
▁오전	-10.0939
▁못할	-10.094
▁택시	-10.0943
셈	-10.0946
▁다음주	-10.0948
▁그의	-10.095
님들	-10.095
돼서	-10.095
▁넘게	-10.0952
▁데리고	-10.0957
▁아까운	-10.0957
▁재미없다	-10.0961
관리	-10.0962
▁연남동	-10.0963
▁궁	-10.0964
속에	-10.0966
논	-10.0974
▁미소	-10.0977
▁계절	-10.0979
▁필수	-10.098
렬	-10.0981
▁싶음	-10.0982
▁있으니까	-10.0984
▁하던	-10.0984
▁만들기	-10.0986
▁정상	-10.0987
▁내용도	-10.0988
▁케이스	-10.099
정도로	-10.0991
▁뉴스	-10.0992
▁가슴이	-10.0994
나와	-10.0999
나옴	-10.1
폐	-10.101
▁놓고	-10.101
▁했어	-10.1011
▁와인	-10.1012
▁네일	-10.1019
▁슬슬	-10.1019
▁봤어요	-10.102
▁ᄃᄃ	-10.1021
▁가려	-10.1022
적이고	-10.1024
방송	-10.1029
▁붙	-10.1037
▁온다	-10.1037
▁갑니다	-10.1038
▁뇌	-10.1039
▁역시나	-10.1043
▁판타지	-10.1044
에겐	-10.1049
▁쭈	-10.105
넣	-10.1053
듯한	-10.1055
▁우연히	-10.1056
입고	-10.1059
▁할인	-10.1061
▁뿌	-10.1061
▁바이	-10.1062
▁카레	-10.1063
아이스크림	-10.1064
▁가만히	-10.1065
▁울산	-10.107
기엔	-10.107
▁알았다	-10.107
▁관람	-10.1075
▁동생이	-10.108
▁메인	-10.1086
▁짠	-10.1092
▁성인	-10.1101
▁지성이	-10.1101
왓	-10.1101
▁토마토	-10.1105
았는데	-10.1106
▁엉	-10.1114
▁때문	-10.1121
틴	-10.1121
▁일부러	-10.1127
▁아쉬운	-10.1129
▁도시	-10.1131
시키	-10.1132
▁앉아서	-10.1135
▁프사	-10.1138
▁엉덩이	-10.1138
▁없습니다	-10.1141
읍	-10.1143
▁종종	-10.1145
▁퇴	-10.1146
돼지	-10.1146
▁좋다고	-10.1148
간식	-10.1152
▁상대	-10.1152
수록	-10.1153
욧	-10.1156
이었	-10.1157
▁어울리는	-10.1162
▁웨	-10.1163
줘야	-10.1167
모임	-10.1167
까요	-10.1176
▁안주	-10.1177
▁지나가	-10.1177
▁유명	-10.1183
▁에바	-10.1185
▁생각한다	-10.1189
▁살려	-10.1191
▁교수	-10.1194
▁아파	-10.1198
▁ᅲᅮ	-10.1201
▁뽑아	-10.1203
▁달고	-10.1206
나오	-10.1207
▁빌	-10.1208
력이	-10.1209
끌	-10.1209
▁연말	-10.1212
뚜	-10.122
것같	-10.122
▁헬	-10.1223
ᄋᄋ	-10.1224
▁건물	-10.1229
▁오늘부터	-10.1231
▁사랑해요	-10.1236
▁지방	-10.1237
oo	-10.1238
▁노동	-10.1242
▁완벽	-10.1242
▁거짓말	-10.1245
▁힘내	-10.1248
으나	-10.1263
Z	-10.1266
▁턱	-10.1269
▁해줘	-10.1269
▁이쁘	-10.1272
▁소스	-10.1273
▁누누	-10.1274
▁성적	-10.1279
▁레드	-10.1284
였나	-10.1285
▁비싸	-10.1286
뎅	-10.1289
렛	-10.1292
욥	-10.1295
먹방	-10.1296
웨이	-10.1297
▁신나	-10.1298
ur	-10.1298
▁모델	-10.1299
▁씻고	-10.1301
▁묵	-10.1304
ad	-10.131
▁이딴	-10.1312
▁품	-10.1314
용으로	-10.1316
▁Sun	-10.1318
무슨	-10.1324
▁궁금해	-10.1326
께서	-10.1327
▁온갖	-10.1332
▁w	-10.1333
▁기차	-10.1334
▁읽는	-10.1336
▁화가	-10.1341
▁틀	-10.1342
▁그만큼	-10.1342
▁주제	-10.1346
▁얘기를	-10.1348
셀	-10.1349
▁하려고	-10.1354
▁혐오	-10.1357
▁농	-10.1363
보러	-10.1366
데요	-10.1369
▁비해	-10.1369
▁후에	-10.1371
▁없다는	-10.1373
장님	-10.1374
문화	-10.1374
▁도시락	-10.1377
온다	-10.1377
달라	-10.138
서요	-10.1382
▁운전	-10.1384
▁여자가	-10.1385
ang	-10.139
▁어쩌다	-10.1396
▁과학	-10.1397
▁신촌	-10.1397
려는	-10.1397
스가	-10.1402
▁ᄊᄇ	-10.1403
▁않지만	-10.1404
▁모르게	-10.1405
▁반대	-10.1406
ic	-10.141
▁먹짤	-10.1411
끼리	-10.1413
▁커버	-10.1416
사랑해	-10.1419
▁생리	-10.1423
▁님이	-10.1424
▁장소	-10.1424
▁시키	-10.1432
없고	-10.1434
할듯	-10.1435
서울	-10.1436
▁죽음	-10.1439
주신	-10.1439
바이	-10.144
▁내년	-10.1441
보이는	-10.1442
제발	-10.1443
▁김밥	-10.1448
▁시대	-10.1451
선생님	-10.1452
▁미안해	-10.1452
레이	-10.1452
▁언어	-10.1453
▁식감	-10.1454
▁씻	-10.1455
▁해운대	-10.1457
▁이따	-10.1458
잇어	-10.1465
ma	-10.1466
거리는	-10.1473
▁출발	-10.1473
▁강의	-10.1478
▁계시	-10.1478
▁섬	-10.1481
행복	-10.1483
턴	-10.1486
▁점수	-10.1488
섬	-10.1489
원이	-10.1491
관계	-10.1499
▁왼쪽	-10.1503
▁결혼식	-10.1514
▁t	-10.1519
보면서	-10.1521
▁뿌듯	-10.1524
같음	-10.1525
▁주접	-10.1532
▁영화입니다	-10.1532
▁마늘	-10.1533
▁후보	-10.1536
뿌	-10.1541
▁왜냐면	-10.1542
▁우린	-10.1543
덕후	-10.1544
▁막장	-10.1544
껄	-10.1544
찐	-10.1546
▁영화로	-10.155
받는	-10.155
▁생각도	-10.1551
▁재밌어요	-10.1552
▁범	-10.1552
해보	-10.1554
I	-10.1562
▁놀아	-10.1563
▁증말	-10.1564
스콘	-10.1564
▁효과	-10.1571
버리는	-10.1573
우유	-10.1577
▁조용히	-10.1577
▁소주	-10.1579
▁닉	-10.1584
는거야	-10.1585
숨	-10.1591
구이	-10.1593
▁편이	-10.1598
새우	-10.1601
▁정말로	-10.1603
▁케이	-10.1604
▁느껴지는	-10.1607
▁죽여	-10.1608
▁사기	-10.1608
건가요	-10.1612
▁이상하게	-10.1617
스틱	-10.1617
▁체력	-10.1618
팡	-10.1632
▁네가	-10.1632
▁파리	-10.1633
어도	-10.1636
▁어휴	-10.1638
▁기준	-10.1639
▁어찌	-10.1644
▁어른	-10.1645
▁폴	-10.1653
food	-10.1655
찰	-10.1657
▁앉아	-10.1658
맥주	-10.1659
▁팬들	-10.166
▁ᅲᅲᅲᅲᅲᅲᅲ	-10.1664
▁때려	-10.1665
▁그래요	-10.1674
▁사진은	-10.1675
▁통풍	-10.1676
▁해주는	-10.1676
▁직업	-10.1677
▁짧은	-10.1678
▁깊은	-10.1678
상태	-10.1683
스테이크	-10.1685
▁호두	-10.1686
▁마음으로	-10.1691
▁찍는	-10.1691
겸	-10.1692
▁세트	-10.1693
us	-10.1694
▁하나는	-10.1695
▁유아	-10.17
로운	-10.1701
▁작년에	-10.1703
▁여튼	-10.1704
▁옛날에	-10.1704
▁공기	-10.1705
은데	-10.171
▁오프	-10.1716
▁그쵸	-10.1717
▁거라고	-10.1721
▁체리	-10.1721
▁먹음	-10.1722
일상	-10.1725
햇어	-10.1726
▁예뻐서	-10.1729
▁브랜드	-10.1731
▁몰라서	-10.1732
맛이	-10.1733
▁좋았	-10.1739
봤어요	-10.174
▁연결	-10.1742
꿀	-10.1743
▁U	-10.1745
▁알지	-10.1746
▁한국영화	-10.1748
찜	-10.1749
ro	-10.1752
▁됐다	-10.1759
▁외출	-10.176
▁컴퓨터	-10.1762
나오는	-10.1762
▁굳	-10.1767
▁모양	-10.1773
▁환경	-10.1776
하셨	-10.178
▁이쁘다	-10.1786
▁만들어서	-10.1787
▁어우	-10.1788
▁ff	-10.1789
역시	-10.1789
▁때문이다	-10.1793
la	-10.1795
샐러드	-10.1797
▁말하고	-10.1798
▁공포영화	-10.1799
생일	-10.1799
ᅲᅲᅲᅲᅲᅲᅲᅲ	-10.1802
탁	-10.1802
▁다큐	-10.1804
▁이래	-10.1808
버렸다	-10.1808
▁불안	-10.1809
▁삶의	-10.1812
▁속에	-10.1821
▁Fri	-10.1822
바람	-10.1824
피부	-10.1826
마을	-10.183
▁벽	-10.1831
빨리	-10.1832
점이	-10.1838
▁상영	-10.1841
객	-10.1842
▁재미도	-10.1844
받은	-10.1847
▁충전	-10.1849
▁너모	-10.1852
▁인천	-10.1856
챠	-10.1858
▁열정	-10.1865
바다	-10.1869
▁대해서	-10.187
▁셀스타그램	-10.187
으시	-10.1873
김치	-10.1874
센터	-10.1875
▁골라	-10.1879
▁뭐든	-10.1881
쳐서	-10.1884
▁않나요	-10.1885
▁잉	-10.1897
딘	-10.1899
ra	-10.1905
▁넘어가	-10.1909
롭	-10.1911
▁봐야지	-10.1915
▁쿨	-10.1917
휘	-10.1917
▁콜	-10.1918
▁여캐	-10.192
▁올린	-10.1922
▁꿈을	-10.1923
▁터	-10.1923
▁입은	-10.1932
▁긴장감	-10.1932
▁탓	-10.1936
과자	-10.1937
진이	-10.1938
▁바닥	-10.1941
▁범죄	-10.1943
▁쥐	-10.1945
▁뽑	-10.1949
▁다녀왔어요	-10.1952
▁끝이	-10.1955
▁않았	-10.1959
▁젊은	-10.1968
▁곳에서	-10.197
곰	-10.1971
▁자야지	-10.1971
▁코스	-10.1972
잇음	-10.1976
▁쌤	-10.1978
▁틀어	-10.1979
▁취미	-10.198
▁채워	-10.198
▁수원	-10.1991
▁죽은	-10.1992
▁연예인	-10.1993
▁하시는	-10.1994
▁자라	-10.1994
후기	-10.1995
▁문장	-10.1995
▁청소년	-10.1999
세여	-10.2
▁폐	-10.2001
▁모두가	-10.2007
▁삼성	-10.201
▁나왔는데	-10.2015
▁한국에서	-10.2019
ly	-10.2019
팟	-10.202
ᅢ	-10.202
▁매운	-10.2022
것만	-10.2023
작품	-10.2032
그래서	-10.2033
▁가정	-10.2039
is	-10.2039
핀	-10.204
▁말차	-10.204
▁의지	-10.204
▁주인	-10.2042
트윗	-10.2045
▁연극	-10.2049
▁의상	-10.2055
▁새해	-10.2056
▁st	-10.2059
▁싶을	-10.2061
▁키스	-10.2063
▁비싼	-10.2073
▁완료	-10.2075
na	-10.2076
할게	-10.2076
야해	-10.2079
▁돌아오	-10.2079
▁말이야	-10.2082
▁앉	-10.2088
▁학교에서	-10.2088
이었음	-10.2095
▁염	-10.2096
▁싫은	-10.2097
ss	-10.2098
▁거기에	-10.21
파이	-10.21
닌	-10.2108
▁OO	-10.2109
▁생각해보니	-10.2113
▁당신은	-10.2114
▁관객	-10.2114
▁오른쪽	-10.2114
▁말로	-10.2122
하루	-10.2127
▁트친소	-10.2128
▁찍었	-10.2129
▁정작	-10.2133
▁벨	-10.2135
▁했어요	-10.2139
▁레벨	-10.2139
▁점도	-10.2139
▁인친	-10.214
▁끄	-10.2142
하기도	-10.2148
▁처음부터	-10.2153
▁펜	-10.2153
▁조금씩	-10.2156
깅	-10.2158
▁비주얼	-10.2166
▁다녀오	-10.2169
벼	-10.2174
▁없었	-10.2175
▁느낄	-10.2175
▁배고파	-10.2175
▁놀라	-10.2176
하느라	-10.2183
▁평소에	-10.2193
▁남아	-10.2198
▁앞머리	-10.2199
▁이뻐	-10.2201
▁몸에	-10.2203
▁잘생긴	-10.2204
▁나오는데	-10.2206
▁샀는데	-10.2207
▁보며	-10.2209
먹은	-10.2209
▁어쨌든	-10.2211
▁덥	-10.2217
웠	-10.2224
▁게다가	-10.2228
▁웬	-10.2231
꼴	-10.2234
있으면	-10.2234
였어요	-10.2235
▁숙	-10.224
▁교환	-10.2245
▁비건	-10.2246
▁소화	-10.2249
▁기여워	-10.225
▁cafe	-10.2251
▁슬픔	-10.2254
자너	-10.2255
▁컵	-10.2256
▁영화라고	-10.2259
▁초딩	-10.2261
▁킹	-10.2261
▁해석	-10.2263
▁아녀	-10.2265
홈	-10.2268
인것	-10.2271
▁엠	-10.2272
▁돈까스	-10.2274
먹음	-10.2274
▁먹어서	-10.2276
할거	-10.2278
▁노래를	-10.2279
났	-10.2287
케이	-10.2287
▁애플	-10.229
▁들은	-10.2299
▁가수	-10.2299
▁ᄋᄂ	-10.23
▁편지	-10.2301
▁쓰면	-10.2305
▁속이	-10.2305
▁맛도	-10.2308
됐다	-10.2309
▁생각은	-10.2316
고기	-10.2317
▁멘탈	-10.2317
▁너의	-10.2319
고양이	-10.2322
쓰레기	-10.2322
ne	-10.2331
▁o	-10.2332
할게요	-10.2334
퓨	-10.2337
하지마	-10.234
▁Mon	-10.2341
day	-10.2341
▁적응	-10.2341
▁타임	-10.2342
▁몰라도	-10.2342
꼭	-10.2343
▁염색	-10.2344
▁더이상	-10.2346
▁뼈	-10.2347
빙수	-10.2353
셨어요	-10.2355
▁재료	-10.2355
낮	-10.2355
▁전국	-10.2356
폴	-10.2358
기분	-10.2359
▁이동	-10.236
▁샀다	-10.2361
▁쑥	-10.2362
▁있기	-10.2363
▁잊	-10.2363
벅	-10.2366
데이트	-10.2378
▁땅	-10.2389
▁과정	-10.239
▁와우	-10.2391
▁축구	-10.2391
▁위꼴	-10.2396
▁당첨	-10.2397
▁한편	-10.2398
▁하아	-10.24
▁여긴	-10.2402
▁낙	-10.2404
▁이어폰	-10.2408
▁죄다	-10.2408
갑니다	-10.241
▁브런치	-10.2411
▁워낙	-10.2414
▁빠진	-10.2416
ia	-10.242
굿	-10.2424
▁식단	-10.2426
재미	-10.244
▁졸려	-10.244
▁유행	-10.2441
▁화이트	-10.2441
가루	-10.2444
▁여운이	-10.2451
다운	-10.2454
▁기타	-10.2455
졸	-10.2457
▁적어도	-10.2457
▁좋게	-10.2458
냄	-10.2459
▁오지게	-10.246
보고싶다	-10.246
식이	-10.2462
빼고	-10.2464
▁도저히	-10.2467
케익	-10.2468
▁싫어서	-10.2469
오리	-10.2473
▁슬프다	-10.2476
▁드립	-10.2479
▁조카	-10.248
▁간지	-10.2481
▁영원히	-10.2484
▁무엇	-10.2485
긋	-10.2485
집에	-10.2487
이구나	-10.2487
▁by	-10.2488
▁밥을	-10.2488
▁당신의	-10.2492
▁년도	-10.2493
▁들었	-10.2495
▁같네요	-10.2497
▁소녀	-10.25
▁잠을	-10.2501
▁with	-10.2505
▁수정	-10.2508
▁하필	-10.2512
▁점은	-10.2514
흑흑	-10.2528
냉	-10.2528
그럼	-10.2528
▁다르게	-10.2531
▁모아	-10.2535
▁파이	-10.2535
▁눌러	-10.2536
▁목요일	-10.2537
▁앞으로도	-10.2538
▁성우	-10.254
▁같지	-10.2546
▁그나저나	-10.2546
퇴	-10.2548
감동	-10.255
▁햇는데	-10.2553
▁다행	-10.2556
▁무섭다	-10.2556
▁맹	-10.2556
▁우선	-10.2559
▁이야기가	-10.2559
던거	-10.2559
▁상담	-10.2562
보인다	-10.2564
▁담에	-10.2566
▁오리	-10.2566
늘	-10.2567
▁you	-10.2568
▁느	-10.2568
할래	-10.257
▁조금만	-10.2572
▁없나	-10.2572
▁힘을	-10.2573
▁학기	-10.2575
▁어느정도	-10.2579
▁역할	-10.2579
▁남자친구	-10.2587
▁몇개	-10.2587
▁캔	-10.2588
▁오르	-10.2588
▁돼서	-10.259
지말고	-10.2593
얌	-10.2594
퀴	-10.2597
▁건조	-10.2597
▁귀요미	-10.2598
▁평소	-10.2601
▁시작한	-10.2604
▁코믹	-10.2604
daily	-10.2608
▁피해자	-10.261
▁청춘	-10.2611
튀김	-10.2611
▁장면이	-10.2611
▁천천히	-10.2613
볶음	-10.2613
▁인물	-10.2615
▁최소	-10.2616
to	-10.2618
▁어쩌고	-10.2624
▁괴	-10.2624
▁근육	-10.2626
곱창	-10.2631
▁꽉	-10.2634
▁기회	-10.2635
▁문재인	-10.2637
나면	-10.2639
▁항	-10.264
뭐야	-10.2642
▁쌍	-10.2645
▁상처	-10.2646
▁가성비	-10.2647
▁하며	-10.2649
▁더워서	-10.2653
▁재밌고	-10.2659
아침	-10.2664
▁왔어요	-10.2667
점심	-10.2668
▁거울	-10.2669
▁ll	-10.2671
▁마셔	-10.2671
at	-10.2673
▁초밥	-10.2675
▁막상	-10.2675
▁새삼	-10.2677
▁전주먹방전주	-10.2681
▁놀고	-10.2684
였고	-10.2684
▁눈빛	-10.2687
▁기절	-10.2698
▁시장	-10.27
ry	-10.2702
▁분들은	-10.2704
돌이	-10.2704
▁받아서	-10.2706
▁몇번	-10.2707
▁유치	-10.2707
릉	-10.2709
▁배송	-10.2713
야한다	-10.2718
▁마블	-10.2718
겠음	-10.2719
▁버전	-10.272
▁물어보	-10.2722
▁음료	-10.2722
괴	-10.273
▁써서	-10.2734
▁누워서	-10.2736
▁대만	-10.274
▁샤워	-10.2741
이여	-10.2743
▁생각함	-10.2744
▁전체적으로	-10.2744
▁속에서	-10.2746
많	-10.2746
▁그니까	-10.2747
르고	-10.2752
lo	-10.2755
▁일차	-10.2757
▁늦은	-10.2762
▁못해서	-10.2763
▁핑	-10.2765
▁어렵	-10.2765
씨가	-10.2769
▁입을	-10.2771
▁수학	-10.2772
▁뽀뽀	-10.2773
인생	-10.2773
▁광화문	-10.2775
▁현장	-10.2775
해주고	-10.2776
▁아진짜	-10.2779
▁도서관	-10.2779
▁샌드위치	-10.278
▁발전	-10.278
▁하는게	-10.2781
▁쟈니	-10.2783
▁창문	-10.2786
하는건	-10.2788
ᅦ	-10.2788
▁전문	-10.2789
자의	-10.279
월드	-10.279
▁남친	-10.2791
▁하나하나	-10.2794
멀	-10.2798
▁면접	-10.2799
▁지인	-10.2805
▁듯한	-10.2806
▁가볍게	-10.2806
▁최대한	-10.2811
▁꽤나	-10.2812
프리	-10.2812
더라도	-10.2814
▁잘하는	-10.2816
▁유럽	-10.2818
▁애정	-10.2818
아아	-10.282
▁너도	-10.2821
▁츄	-10.2821
멸	-10.2823
▁담아	-10.2825
▁이름을	-10.2826
수준	-10.2828
▁알라딘	-10.2831
▁저장	-10.2833
▁ᅵ	-10.2833
▁가시	-10.2833
공부	-10.2834
▁외국	-10.2835
▁벗	-10.2837
▁카이	-10.2838
▁영혼	-10.2841
▁종교	-10.2848
웃겨	-10.285
▁하세요	-10.2854
▁봤습니다	-10.2856
덮밥	-10.286
컬	-10.2861
사를	-10.2861
▁삭제	-10.287
▁희망	-10.2871
▁달아	-10.2871
▁모를	-10.2872
▁있어도	-10.2872
▁지켜	-10.2873
▁어렵다	-10.2873
▁검은	-10.2873
▁Tue	-10.2876
▁이정도	-10.2879
구리	-10.2886
▁땡	-10.2886
▁들으면	-10.2887
식으로	-10.2888
버려서	-10.2888
▁왓	-10.2888
이게	-10.2893
▁감탄	-10.2893
▁청년	-10.2895
▁베트남	-10.2896
▁섹시	-10.2898
▁양파	-10.2905
▁완전히	-10.2906
▁말해	-10.2907
▁보자	-10.2909
내는	-10.291
▁양심	-10.2915
▁시원한	-10.2917
가지구	-10.2918
▁레즈	-10.292
▁잇다	-10.292
물이	-10.2921
▁저를	-10.2922
▁아파서	-10.2922
▁팩	-10.2923
▁selfie	-10.2924
때는	-10.2925
▁관심이	-10.2927
▁얘네	-10.293
▁진실	-10.293
▁찾아보	-10.2932
냄새	-10.2933
▁손이	-10.2935
▁놓	-10.2936
▁않아요	-10.2938
▁정의	-10.2946
▁같애	-10.2947
▁밴드	-10.2948
베리	-10.2949
▁다섯	-10.2951
해지	-10.2954
▁귀신	-10.2958
치기	-10.2961
때도	-10.2962
밈	-10.2962
되서	-10.2966
▁읽을	-10.2968
▁알려주	-10.2969
▁조은	-10.2975
나온	-10.2977
텔	-10.2994
▁빨래	-10.2999
▁스토리도	-10.3
▁않으면	-10.3001
▁기름	-10.3005
중인	-10.3009
▁추워	-10.3012
▁비판	-10.3013
학생	-10.3017
▁무시	-10.3021
하시면	-10.3024
시험	-10.3025
되었다	-10.3025
▁모야	-10.3026
▁맛난	-10.3029
재밌	-10.3033
am	-10.3034
▁낮은	-10.3037
▁좋아할	-10.3037
▁집밥	-10.3038
▁트위터에	-10.3042
보여	-10.3044
것이다	-10.3045
▁좌	-10.3046
▁구분	-10.3054
기간	-10.3057
▁Thu	-10.3063
▁빠른	-10.3066
▁부모님	-10.3066
하우스	-10.307
▁멋	-10.3072
▁파워	-10.3074
▁커서	-10.3075
▁싫어하는	-10.3077
먹고싶다	-10.3081
많은	-10.3082
▁문자	-10.3084
▁부모	-10.3087
▁기다리고	-10.3087
▁축	-10.3087
▁디즈니	-10.3088
▁내용은	-10.309
▁기간	-10.3094
▁똑같	-10.3094
▁차단	-10.3097
쪼	-10.3097
었네	-10.3101
▁자막	-10.3106
▁독일	-10.3108
▁긴장	-10.3112
▁뚜	-10.3114
▁피곤	-10.3114
▁취향이	-10.312
으신	-10.3123
▁명절	-10.3124
▁무지	-10.3126
▁준다	-10.3129
▁힝	-10.3129
▁견	-10.3129
룰	-10.313
▁웃기고	-10.313
▁글케	-10.314
▁극장에서	-10.3142
▁먹고싶	-10.3143
▁선배	-10.3144
▁무엇보다	-10.3144
▁큰일	-10.3148
▁부럽다	-10.3151
▁인간의	-10.3153
▁보내고	-10.3157
님과	-10.3158
보다가	-10.3166
▁패션	-10.3167
핫	-10.3167
▁걸리	-10.3168
▁살면서	-10.317
▁걸까	-10.3173
▁된다고	-10.3173
▁판단	-10.3176
▁천안	-10.3177
▁셀프	-10.3177
▁먹구	-10.3178
▁되기	-10.3184
▁구입	-10.3185
as	-10.3189
했다는	-10.319
▁째	-10.3191
였습니다	-10.3192
우스	-10.3194
▁라디오	-10.3194
▁조명	-10.3199
▁이때	-10.32
▁아프다	-10.3205
▁인데	-10.3208
▁초대	-10.321
▁넣	-10.321
▁월일	-10.3214
만들어	-10.3214
▁수박	-10.3215
▁Wed	-10.3215
▁적어	-10.3215
▁쎄	-10.3216
▁궁금해서	-10.3216
댕	-10.3218
버전	-10.3218
▁멀리	-10.3218
▁지가	-10.3219
▁네네	-10.3221
▁만들었다	-10.3221
▁의외로	-10.3222
거다	-10.3223
▁믿	-10.3223
▁써야	-10.3228
▁me	-10.3228
▁움	-10.3229
▁있긴	-10.3232
댓	-10.3238
▁용서	-10.324
▁좋아해요	-10.324
▁잇어	-10.3241
▁또한	-10.3243
▁한글	-10.3244
낭	-10.3245
▁남자들	-10.3246
세계	-10.3247
▁우정	-10.3256
▁가는데	-10.3257
▁은비	-10.3259
▁고등학교	-10.3259
깃	-10.326
▁cu	-10.326
빵집	-10.326
▁연구	-10.3261
었고	-10.3263
호텔	-10.3264
밭	-10.3264
이건	-10.3266
▁폭력	-10.3266
파스타	-10.3266
▁나들이	-10.3267
▁올리고	-10.3267
▁길에	-10.3269
▁피해	-10.327
▁비비	-10.3275
▁뉴욕	-10.3276
▁안됨	-10.328
▁뷰	-10.328
▁바쁜	-10.3282
▁다행이다	-10.3283
▁다녀	-10.3283
▁길이	-10.3289
▁실트	-10.329
▁나가서	-10.3293
해준	-10.3294
▁되나	-10.3295
▁느낀	-10.3296
▁고마워요	-10.3297
▁설경구	-10.3297
▁뿌리	-10.3302
▁곳에	-10.3309
ᄑ	-10.331
▁부족한	-10.3318
베이	-10.3319
쓰는	-10.3322
▁했습니다	-10.3325
▁초반	-10.3327
푸드	-10.333
▁소리가	-10.333
▁소원	-10.3332
▁승리	-10.3337
▁저번	-10.3338
▁정도는	-10.334
▁재미있는	-10.3342
가지	-10.3342
▁조각	-10.3343
엽	-10.3349
▁적은	-10.3352
자들	-10.3353
▁개그	-10.3353
더군요	-10.3354
기대	-10.3354
▁격	-10.3355
▁당신이	-10.3357
▁바랍니다	-10.3358
랍니다	-10.3359
▁남았	-10.3359
널	-10.3363
▁혀	-10.3366
땡	-10.3368
▁낮에	-10.3372
벽	-10.3373
▁사야	-10.3374
▁길을	-10.3374
▁보여서	-10.3375
네일	-10.3375
▁상관	-10.3383
▁무기	-10.3385
▁쓰기	-10.3386
님께	-10.3388
▁전달	-10.3391
언제	-10.3391
먹으면	-10.3392
▁천국	-10.3396
▁비계	-10.3399
▁기다리는	-10.3401
▁일부	-10.3405
▁계신	-10.3406
ta	-10.3411
co	-10.3412
▁싶었던	-10.3414
▁보려고	-10.3424
ᅮᅲ	-10.3426
▁없네요	-10.3426
▁강릉	-10.3427
는데요	-10.343
▁개강	-10.3435
▁수작	-10.3436
▁붙여	-10.3437
▁더빙	-10.3437
▁농담	-10.344
▁은근	-10.344
ill	-10.3441
웃음	-10.3442
▁똑같이	-10.3443
ot	-10.3445
코스	-10.3455
딸기	-10.3463
띵	-10.3464
▁극장	-10.3465
▁한번씩	-10.3468
들한테	-10.3468
누나	-10.3471
평점	-10.3473
웠다	-10.3474
▁씬	-10.3476
▁아닌가요	-10.3477
튀	-10.3478
▁넹	-10.3479
▁무려	-10.3479
시티	-10.3479
맹	-10.3481
▁자극	-10.3482
▁여기에	-10.3487
▁부부	-10.3488
▁같지만	-10.3488
▁팔아	-10.3488
▁책이	-10.349
녕	-10.3493
만들	-10.3497
▁신나게	-10.3504
사회	-10.3505
▁뽕	-10.3505
▁수요일	-10.3507
부르	-10.3509
▁기엽	-10.3514
▁낫다	-10.3515
▁마자	-10.3517
▁웃고	-10.3518
마이	-10.352
▁할로윈	-10.3521
▁지옥	-10.3525
▁크림치즈	-10.353
▁마시는	-10.353
들만	-10.3532
▁살이	-10.3533
▁올릴	-10.3536
▁하는지	-10.3539
룡	-10.354
▁울어	-10.3544
음악	-10.3544
댐	-10.3553
▁택	-10.3555
떨	-10.3561
▁잊지	-10.3562
▁망고	-10.3564
▁여름에	-10.3564
▁뜯	-10.3565
▁링크	-10.3569
▁연속	-10.3571
▁향수	-10.3575
▁미쳤다	-10.3578
▁벤	-10.3578
▁착	-10.3579
▁좃	-10.358
시간에	-10.3583
▁자신을	-10.3585
로우	-10.3586
▁아쉽	-10.3588
살아	-10.359
▁들어가는	-10.3591
▁라떼	-10.3592
찾	-10.3593
▁픽	-10.3594
▁억지	-10.3595
▁했고	-10.3597
▁좋았는데	-10.3597
▁그닥	-10.3598
▁얻	-10.3599
팝	-10.3604
▁아이디	-10.3605
▁만남	-10.3606
▁고추	-10.3611
지면	-10.3618
▁양념	-10.3619
앵	-10.362
Q	-10.3623
나도	-10.3626
할수	-10.3627
▁기획	-10.3628
▁에어팟	-10.3628
겠다는	-10.3628
▁가까이	-10.3629
놔	-10.363
▁건강한	-10.3632
기전에	-10.3635
▁우산	-10.364
te	-10.3651
▁좀비	-10.3657
듣고	-10.3658
▁맛있어서	-10.3659
났다	-10.3662
엇어	-10.3665
진심	-10.3665
▁먹어보	-10.3667
쓴	-10.3669
▁키우	-10.3673
▁때까지	-10.3678
▁의도	-10.3682
하겠습니다	-10.3684
냐면	-10.3685
▁좋지만	-10.3685
이어서	-10.3693
까지는	-10.3694
▁주인공이	-10.3695
▁ᄐ	-10.3697
▁스테이크	-10.3699
▁두시간	-10.3699
랫	-10.3701
있게	-10.3701
▁화나	-10.3702
지게	-10.3703
▁고민중	-10.3703
시키는	-10.3703
나봐요	-10.3704
리스트	-10.3706
▁매장	-10.3708
▁겁	-10.371
▁연주	-10.371
▁헛	-10.371
국수	-10.3711
▁텐데	-10.3712
un	-10.3722
▁마약	-10.3725
▁어디에	-10.3726
▁찾는	-10.373
▁것으로	-10.373
샌드위치	-10.3733
셔야	-10.3734
▁노래가	-10.3738
▁자식	-10.3742
▁계산	-10.3746
스키	-10.3746
줬	-10.3749
▁칸	-10.3749
알바	-10.3752
으려고	-10.3752
▁갖다	-10.3753
▁컷	-10.3753
▁러브	-10.3754
비가	-10.3763
▁우는	-10.3764
▁티저	-10.3764
▁무섭	-10.3765
이즈	-10.3768
▁멜	-10.3772
쳤	-10.3777
▁아뇨	-10.3785
졋	-10.3786
▁거임	-10.3787
and	-10.3787
현이	-10.3788
▁르	-10.3788
▁오고	-10.3789
▁가입	-10.379
▁배우들의	-10.379
▁많았	-10.379
▁인싸	-10.3793
▁친한	-10.3794
▁부담	-10.3794
킬	-10.3794
▁참치	-10.3795
de	-10.3797
▁엄마는	-10.3799
였으면	-10.3801
▁행복하게	-10.3802
▁그치	-10.3805
짬뽕	-10.3806
겁니다	-10.3806
콤	-10.381
▁최대	-10.3811
미가	-10.3812
▁생각합니다	-10.3817
▁부정	-10.3817
감사합니다	-10.3819
▁본진	-10.3828
▁중에서	-10.3829
라이트	-10.3835
어디	-10.3838
▁불구하고	-10.3842
▁받았다	-10.3843
▁바람에	-10.3847
▁머리를	-10.3848
저는	-10.385
▁으로	-10.3854
▁것입니다	-10.3859
테니	-10.3863
뛰	-10.3868
▁년만에	-10.3869
하는지	-10.3871
▁셀	-10.3875
메뉴	-10.3876
▁기술	-10.3877
▁세대	-10.3882
이엇	-10.3884
▁에너지	-10.3886
▁손을	-10.389
▁어릴때	-10.3891
▁아시발	-10.3894
▁경주	-10.3895
▁뒤지	-10.3895
▁흥행	-10.3897
같은데	-10.3898
습니당	-10.3898
▁넘넘	-10.3899
▁게이	-10.3899
협	-10.3901
▁원피스	-10.3902
▁알림	-10.3907
▁어떡하지	-10.3909
▁좋아한다	-10.3911
▁얼음	-10.3915
▁지루한	-10.3916
놈이	-10.3916
▁익	-10.3917
▁발라	-10.3919
으세요	-10.3919
은거	-10.3919
▁아놔	-10.392
올라	-10.3921
▁악마	-10.3922
란다	-10.3924
▁국물	-10.3924
껏	-10.3925
인형	-10.3927
▁꼽	-10.3927
셔요	-10.3927
▁어플	-10.393
▁빵집	-10.393
▁사주	-10.3931
느냐	-10.3931
하려	-10.3932
▁캡쳐	-10.3933
▁죄송	-10.3934
▁타투	-10.3934
아가	-10.3944
▁꿀잼	-10.3945
▁어쩐지	-10.3947
첫	-10.3947
▁들이	-10.3947
것을	-10.3948
▁궁금하다	-10.3949
▁먼지	-10.395
▁말하면	-10.3956
쪄	-10.3956
뜻	-10.3959
▁좋겠어	-10.3961
▁엄마한테	-10.3962
▁아메리카노	-10.3967
ho	-10.3969
▁잇음	-10.398
쨩	-10.3981
▁만약	-10.3983
▁그레이	-10.3985
▁여친	-10.3986
▁못한다	-10.3992
잇다	-10.3992
▁마냥	-10.3992
스테	-10.3993
▁문제는	-10.3993
때부터	-10.3994
정이	-10.3995
▁프로젝트	-10.3997
▁회식	-10.4004
▁거라	-10.4005
um	-10.4008
▁얼굴에	-10.4012
ᄎ	-10.4012
▁스시	-10.4015
▁나갈	-10.4016
▁모르겠는데	-10.4016
므	-10.4016
▁소리를	-10.4017
▁보러가	-10.4018
▁빌려	-10.4021
▁근처에	-10.4023
▁데이	-10.4023
▁묻	-10.4023
▁기계	-10.4024
작가	-10.4024
만의	-10.4025
▁있네요	-10.4029
세용	-10.4029
▁짱짱	-10.403
썰	-10.4031
▁잃	-10.4032
▁도움이	-10.4033
th	-10.4034
▁so	-10.4038
▁크기	-10.4048
▁끝났	-10.4048
▁문득	-10.4049
▁아파트	-10.4049
▁모르겠고	-10.405
▁떡밥	-10.4055
▁사러	-10.4056
▁즐겨	-10.4057
던지	-10.4058
▁월급	-10.4059
▁젤리	-10.4063
▁머리에	-10.4063
▁잘해	-10.4064
석이	-10.4066
▁투명	-10.4067
▁다같이	-10.4068
▁흔적	-10.4068
▁찍을	-10.407
나고	-10.4071
시리즈	-10.4073
▁주변에	-10.4078
차카니	-10.4078
날씨	-10.4079
있네	-10.4081
▁사람들의	-10.4082
봐야지	-10.4088
▁할때	-10.4092
▁어떻게든	-10.4101
▁재기	-10.4101
▁닥터	-10.4101
▁야채	-10.4105
이벤트	-10.4113
▁부럽	-10.4113
▁저녁은	-10.4117
딜	-10.4118
▁생겨서	-10.4119
▁닉네임	-10.4119
모습	-10.4121
갔다가	-10.4123
▁독서	-10.4126
▁프듀	-10.413
▁직장	-10.4131
러스	-10.4133
▁구글	-10.4133
돈까스	-10.4136
아웃	-10.4137
면서도	-10.4138
▁세기	-10.414
▁채널	-10.414
▁아이들이	-10.4142
▁복수	-10.4149
봐라	-10.415
▁가챠	-10.4151
▁콜라보	-10.4152
당한	-10.4156
▁살인	-10.4157
▁애국	-10.4159
▁상황이	-10.4162
아빠	-10.4163
▁지갑	-10.4165
▁족	-10.417
▁줌	-10.417
▁한번만	-10.4171
▁선거	-10.4172
▁비디오	-10.4175
▁마실	-10.418
▁그러고보니	-10.4183
▁괜찮아요	-10.4185
엇음	-10.4191
▁주신	-10.4192
▁떨어지는	-10.4194
▁묘사	-10.4197
▁오사카	-10.4201
▁팬미팅	-10.4201
잔아요	-10.4203
▁안에서	-10.4204
셋	-10.4205
이자	-10.4206
▁하나님	-10.421
▁연기를	-10.4217
▁되어서	-10.4221
▁다크	-10.4225
교회	-10.423
▁먹지	-10.423
▁반찬	-10.4237
▁인성	-10.4237
▁잔다	-10.4239
▁팥	-10.4244
▁재밌음	-10.4248
▁라인	-10.4248
▁박스	-10.4251
▁혼자서	-10.4257
수잇	-10.4259
▁그래두	-10.4259
▁누워있	-10.4259
잡고	-10.4263
▁했으면	-10.4264
꺼야	-10.4268
▁운동하는여자	-10.4271
▁피아노	-10.4272
핏	-10.4275
▁것인가	-10.4276
▁첫번째	-10.428
엑	-10.4281
▁폭풍	-10.4283
▁누군가	-10.4285
쵸	-10.4286
▁모르겠음	-10.4288
영화는	-10.4288
▁하나가	-10.429
▁foodie	-10.429
▁어제는	-10.4291
▁할아버지	-10.4293
명이	-10.4295
었으면	-10.4295
▁졸작	-10.4296
봅니다	-10.4296
▁끝난	-10.4299
▁생각해도	-10.4299
ca	-10.43
▁박근혜	-10.4306
▁주로	-10.4307
▁감독님	-10.4307
▁훌륭한	-10.4308
▁젠	-10.4309
▁지루하고	-10.4313
▁레드벨벳	-10.4313
자를	-10.4317
했는지	-10.4318
가야지	-10.4323
소설	-10.4325
▁올라	-10.4326
▁어디가	-10.4327
먹었	-10.4328
▁밤새	-10.4329
▁화장품	-10.4329
▁재미없	-10.4335
▁운명	-10.4335
▁듣기	-10.4336
▁흘러	-10.4336
▁오징어	-10.4337
위에	-10.4338
렸는데	-10.434
▁촉촉	-10.4344
▁벗어나	-10.4345
마시	-10.4345
▁전투	-10.4345
▁짬뽕	-10.4345
이유	-10.4346
▁gs	-10.4347
여름	-10.4349
▁조만간	-10.4354
▁때부터	-10.4355
▁흥미	-10.4356
▁욕심	-10.436
▁좋아하고	-10.4364
▁재미있	-10.4365
드려	-10.4367
▁특별한	-10.4369
주기	-10.4369
▁이정도면	-10.4369
▁이기	-10.4373
▁않습니다	-10.4378
멜	-10.4383
▁하하	-10.4384
있었	-10.4384
동맛집	-10.4386
▁세상을	-10.4386
초콜릿	-10.4388
▁흐름	-10.4389
▁논문	-10.439
▁수고	-10.4397
자나요	-10.4398
▁어쩌면	-10.44
했지	-10.4404
▁여기는	-10.4409
▁부자	-10.441
욘	-10.4412
▁끌고	-10.4414
▁몰래	-10.4417
▁진지하게	-10.4418
▁부족	-10.4418
ᅲᅲᅲᅲᅲᅲᅲᅲᅲ	-10.4419
▁처럼	-10.4421
▁손으로	-10.4421
▁아니지	-10.4428
했나	-10.443
라며	-10.4434
▁인간들	-10.4434
학원	-10.4435
▁분량	-10.4436
▁뒤집어	-10.4438
▁못함	-10.4439
▁느껴	-10.444
▁국어	-10.4441
▁입덕	-10.4441
▁검사	-10.4443
시즌	-10.4444
▁밀크티	-10.4448
▁설치	-10.4449
▁어머	-10.4453
▁문학	-10.4455
▁둘째	-10.4457
지않고	-10.4458
▁모닝	-10.4461
▁솔로	-10.4462
▁그랫	-10.4462
▁자료	-10.4464
▁봣	-10.4464
이기도	-10.4465
아들	-10.4466
▁티켓팅	-10.4467
▁짝	-10.4472
▁공격	-10.4473
▁i	-10.4476
한국	-10.4477
▁반드시	-10.4478
▁중앙	-10.4479
▁갈아	-10.4482
오고	-10.4483
▁멋있	-10.4484
▁쓰지	-10.4484
▁빠르게	-10.4486
왔어요	-10.4487
하려는	-10.449
▁고영	-10.4494
있던	-10.4496
▁벌어	-10.4497
▁여주	-10.4497
▁종강	-10.4497
▁바람이	-10.4498
▁만나면	-10.45
▁밖에서	-10.4503
▁빙	-10.4505
▁생겼다	-10.4505
▁단호박	-10.4505
것들	-10.4512
▁서사	-10.4513
▁탈출	-10.4513
▁귀찮아서	-10.4513
▁맞지	-10.4515
▁길게	-10.4516
▁오랜만	-10.4522
내일	-10.4527
▁했음	-10.4529
▁맵	-10.4532
▁탐라에서	-10.4532
▁내려가	-10.4532
▁어서	-10.4536
즘	-10.4538
▁핀	-10.454
▁가져	-10.4542
▁옷을	-10.4543
▁의식	-10.4543
▁위험	-10.4544
▁해라	-10.4546
▁유사	-10.455
▁OOO	-10.4551
▁인식	-10.4553
ie	-10.4557
빡	-10.456
▁머리카락	-10.456
▁의자	-10.4563
▁영화관	-10.4568
▁저기요	-10.4575
혀서	-10.4577
▁맛있는거	-10.458
▁파트	-10.4581
싶	-10.4582
▁수술	-10.4582
__	-10.4583
▁시까지	-10.4583
놨	-10.4584
il	-10.4586
▁몰랐	-10.4587
것은	-10.4592
▁다이어리	-10.4594
▁세상이	-10.4595
셨나요	-10.4596
be	-10.4599
▁집이	-10.4602
▁착각	-10.4603
집에서	-10.4604
▁뜬	-10.4604
빼	-10.4607
처음	-10.461
▁각자	-10.4611
▁막내	-10.4613
기념	-10.4618
ter	-10.4618
▁e	-10.4619
▁돌리	-10.462
▁모르겠	-10.4627
▁튀김	-10.4627
▁치료	-10.4628
▁즐겁게	-10.4628
캣	-10.4628
▁my	-10.4629
▁레알	-10.4629
▁최고야	-10.4635
▁누군지	-10.4638
▁가져가	-10.4643
▁왜이리	-10.4644
▁미루	-10.4645
▁운영	-10.4647
▁다행이	-10.4649
었지만	-10.465
▁회차	-10.465
com	-10.4652
▁명이	-10.4652
▁페이지	-10.4654
줘요	-10.4655
▁싸우	-10.4655
▁vs	-10.466
봣는데	-10.4667
▁나면	-10.4667
▁혹	-10.4668
▁집안	-10.467
▁각본	-10.4671
▁싶네요	-10.4673
▁죽는	-10.4674
쎄	-10.4675
▁보고싶은	-10.4675
액션	-10.4676
▁코코	-10.4677
▁저건	-10.4677
▁페북	-10.4683
▁캬	-10.4685
▁들었는데	-10.4686
겨울	-10.4689
▁만나는	-10.4689
▁베스트	-10.4689
▁시계	-10.4689
녹	-10.4689
앜	-10.469
▁끌어	-10.469
올리	-10.4695
얘	-10.4698
하죠	-10.4698
▁대놓고	-10.4698
▁ᄀᄎ	-10.4699
▁내놔	-10.4702
▁남아있	-10.4704
▁가고싶다	-10.4705
▁업데이트	-10.4705
▁왔습니다	-10.4706
▁오브	-10.4709
▁강한	-10.471
▁구름	-10.471
재밋	-10.471
시나요	-10.4711
▁빡	-10.4713
쟈나	-10.4713
▁안좋아	-10.4714
▁나오지	-10.4715
한건	-10.4716
▁귤	-10.4718
▁공지	-10.4718
▁내년에	-10.4721
▁떨어지	-10.4721
▁팔로워	-10.4721
▁남돌	-10.4723
스럽	-10.4724
스럽다	-10.4724
▁결론	-10.4724
▁앉아있	-10.4728
집니다	-10.4729
▁평범한	-10.4729
▁킬	-10.4729
▁아시	-10.4732
▁be	-10.4734
▁란	-10.4737
▁출시	-10.4739
▁구조	-10.474
▁시골	-10.474
씀	-10.474
▁인증	-10.4743
▁Y	-10.4743
마켓	-10.4744
▁웹	-10.4745
▁나보다	-10.4748
▁번호	-10.4748
▁장난감	-10.4753
▁냠	-10.4756
▁어때	-10.4758
▁올라오	-10.4758
까지만	-10.4759
다른	-10.4761
만든	-10.4763
▁좋습니다	-10.4767
쿡	-10.4768
대회	-10.4768
실분	-10.4769
▁입금	-10.4772
거죠	-10.4773
▁개념	-10.4773
▁어릴	-10.4777
▁질질	-10.4778
마지막	-10.4782
▁경제	-10.4782
▁억지로	-10.4783
▁남주	-10.4785
▁산다	-10.4787
▁가득한	-10.4788
웨	-10.4791
▁몸을	-10.4795
▁한번에	-10.4795
뽑	-10.4796
▁큐	-10.4797
▁그것이	-10.4801
▁신랑	-10.4801
▁메이플	-10.4804
▁정부	-10.4805
▁체험	-10.4805
▁어디로	-10.4806
아악	-10.4807
해놓고	-10.4809
▁엔시티	-10.4814
젤리	-10.4815
▁웃겨서	-10.4817
상이	-10.4819
감을	-10.482
▁말자	-10.4823
▁욕망	-10.4823
알아	-10.4824
▁야경	-10.4827
▁것에	-10.4828
▁좋아하	-10.4829
켓	-10.4835
▁Regrann	-10.4837
▁크고	-10.4839
앱	-10.4843
▁더블	-10.4844
▁찾아서	-10.4847
▁손님	-10.4847
▁평일	-10.4852
▁나눠	-10.4852
줬으면	-10.4853
▁마저	-10.4857
▁신메뉴	-10.4857
먹으러	-10.4858
▁폼	-10.4862
▁나눔	-10.4865
▁말라고	-10.4865
시길	-10.4867
▁한마디	-10.4867
거같아서	-10.4867
▁되는거	-10.487
셨다	-10.4871
▁진리	-10.4872
▁마주	-10.4873
▁타이	-10.4875
활동	-10.4878
내내	-10.488
▁끝나면	-10.488
걍	-10.4881
▁타입	-10.4882
▁정신이	-10.4882
▁자아	-10.4884
▁애교	-10.4887
지않	-10.4888
동생	-10.4889
야함	-10.4895
듣	-10.4897
▁햄버거	-10.4898
▁봅니다	-10.4901
▁얻어	-10.4902
▁알리	-10.4903
읽	-10.4907
때매	-10.4909
▁하러	-10.491
▁특별	-10.491
▁드리	-10.4911
▁묶	-10.4912
▁하얀	-10.4913
▁조아하는	-10.4913
▁이전	-10.4921
일단	-10.4923
▁delicious	-10.4924
▁지루함	-10.4925
스럽게	-10.4931
▁쉬운	-10.4933
스러워	-10.4935
▁후후	-10.494
▁섞	-10.4941
▁센스	-10.4942
▁태풍	-10.4942
▁연기는	-10.4943
▁안그래도	-10.4943
▁눈썹	-10.4944
▁급하게	-10.4945
▁울면서	-10.4946
걸요	-10.4949
▁말랑	-10.4951
친다	-10.4951
▁아이가	-10.4952
만큼은	-10.4952
▁수면	-10.4952
▁들어갈	-10.4954
되었	-10.4959
▁영웅	-10.4961
바지	-10.4963
타이	-10.4963
▁시간은	-10.4967
▁하드	-10.4969
▁몇년	-10.4969
스런	-10.4969
▁종류	-10.4969
버터	-10.497
▁데이터	-10.497
▁이번에는	-10.4972
옵	-10.4974
스러움	-10.4974
▁친구들이	-10.4975
▁실물	-10.4978
봇	-10.4979
▁런	-10.498
▁전부터	-10.4986
▁뷰티	-10.4986
건강	-10.4987
▁이상해	-10.4987
▁책상	-10.4993
▁탱	-10.4993
정신	-10.4994
으러	-10.4996
▁보는내내	-10.4998
▁중독	-10.4998
▁실수	-10.5002
▁집으로	-10.5004
▁체크	-10.5004
▁에휴	-10.5006
▁아마도	-10.5009
▁저걸	-10.5012
id	-10.5012
▁인도	-10.5015
▁ᅲᅲᅲᅲᅲᅲᅲᅲ	-10.5017
▁당연한	-10.5017
▁베이비	-10.5018
▁화요일	-10.5021
캔	-10.5024
ine	-10.5027
▁돼요	-10.5027
▁놀랐	-10.5029
▁만났	-10.503
지마세요	-10.5031
▁애비	-10.5032
몰라	-10.5032
▁닮은	-10.5032
▁스릴	-10.5033
▁증	-10.5036
▁볶음밥	-10.5038
▁났	-10.5039
갖고	-10.504
▁철학	-10.5041
▁더위	-10.5043
▁멍청	-10.5044
▁세계관	-10.5045
▁좋아함	-10.5046
▁나타나	-10.5049
▁갈까	-10.5049
나게	-10.505
▁몰입도	-10.505
▁모르겠어요	-10.505
▁귀여워요	-10.5063
▁아깝	-10.5066
믄	-10.5068
즙	-10.507
▁인상	-10.5073
▁텐	-10.5073
▁안해	-10.5077
▁달달한	-10.5078
▁노래방	-10.5081
포인트	-10.5083
▁롯데	-10.509
▁단편	-10.509
갑자기	-10.5091
▁대단	-10.5093
▁너희	-10.5094
만으로도	-10.51
▁보아	-10.5101
▁주일	-10.5103
댄	-10.5107
▁한정	-10.5107
잇는데	-10.5108
ce	-10.5111
▁동기	-10.5114
나와서	-10.5115
▁무한	-10.5115
▁어쩌	-10.5117
▁느껴지	-10.5117
해져서	-10.5122
▁있다가	-10.5123
▁없었던	-10.5125
▁능	-10.5127
인걸	-10.5129
▁몰아	-10.5132
넌	-10.5132
도안	-10.5132
▁종인이	-10.5133
▁실력	-10.5133
▁귀찮	-10.5133
▁구독	-10.5135
▁시러	-10.5136
▁잇는데	-10.5137
해짐	-10.5141
▁말에	-10.5143
▁정도의	-10.5144
▁봤어	-10.5144
스타일	-10.5145
드릴게요	-10.5146
▁수많은	-10.5147
가면서	-10.5147
▁신경쓰	-10.515
▁안내	-10.5155
것같아요	-10.5157
▁밑	-10.5165
▁ᄇ	-10.5168
▁같은거	-10.5169
▁생명	-10.5169
▁영화관에서	-10.5171
▁둔	-10.5172
것같은데	-10.5174
하면서도	-10.5181
▁새끼들	-10.5181
잖	-10.5182
▁감동이	-10.5182
▁까먹	-10.5183
▁해준	-10.5185
보여서	-10.5186
▁겨	-10.5188
▁키로	-10.519
▁영화도	-10.5193
하시고	-10.5194
▁죠	-10.5195
▁선수	-10.5197
지마라	-10.5198
써요	-10.5202
▁소년	-10.5202
▁오바	-10.5204
겠네요	-10.5205
▁돋	-10.5205
▁평화	-10.5206
▁예고편	-10.5208
하늘	-10.5208
미니	-10.5211
속에서	-10.5213
▁들려	-10.5213
▁바디	-10.5214
뒤에	-10.5215
▁이름은	-10.522
있었는데	-10.5221
ha	-10.5222
▁뭘까	-10.5229
쭈	-10.523
foodstagram	-10.523
▁그렇지만	-10.5231
덩	-10.5232
있을	-10.5234
쩍	-10.5235
▁고르	-10.5235
▁싸움	-10.5236
감자	-10.5237
인게	-10.5239
▁너무나도	-10.5241
세상	-10.5244
컴	-10.5247
▁수준이	-10.5248
da	-10.525
아파	-10.5251
는듯	-10.5252
▁밥먹고	-10.5253
순간	-10.5253
도시락	-10.5258
가며	-10.5259
▁한동안	-10.526
▁들리	-10.5261
▁없었는데	-10.5261
▁태국	-10.5262
▁다만	-10.5262
▁해놓고	-10.5265
▁같다고	-10.5265
드립	-10.5265
주말	-10.5266
▁저한테	-10.5266
▁다르다	-10.5268
거냐	-10.5268
▁고백	-10.5269
▁도움	-10.5271
▁바삭	-10.5271
▁의미가	-10.5272
▁뜨거운	-10.5275
▁요정	-10.5276
▁있었음	-10.5278
▁is	-10.5278
▁외모	-10.5283
▁않아도	-10.5285
쪽으로	-10.5287
▁방향	-10.5289
▁친절	-10.5289
해줄	-10.5289
▁합정	-10.5289
동네	-10.529
▁모바일	-10.5293
는구나	-10.5303
이예요	-10.5304
▁뿌려	-10.5305
▁시청	-10.5307
▁먹어본	-10.531
▁아내	-10.531
▁늘어	-10.5312
▁보정	-10.5313
▁이런걸	-10.5316
▁임신	-10.5317
▁공항	-10.5319
친구들	-10.5319
▁대학생	-10.5322
려다가	-10.5323
마냥	-10.5327
▁맛나	-10.5328
덴	-10.5328
▁죽고	-10.5329
▁별점	-10.5329
넬	-10.5333
▁메이	-10.5336
나올	-10.5339
▁현타	-10.5339
▁집가서	-10.5339
ᄁ	-10.534
▁가치	-10.5342
▁졸리	-10.5344
▁안보	-10.5346
▁시벌	-10.5346
했었는데	-10.5346
▁있었으면	-10.5351
▁알람	-10.5352
▁인생이	-10.5354
▁밀어	-10.5355
▁메이크업	-10.5355
▁오래된	-10.536
다구	-10.5362
▁엘리	-10.5364
▁맞고	-10.5368
▁여자친구	-10.5369
▁비오는	-10.537
갱	-10.5371
▁심장이	-10.5372
▁습관	-10.5372
▁이마	-10.5375
▁에어	-10.5378
▁점대	-10.5378
jeonju	-10.5378
greedeat	-10.5378
▁대중	-10.538
촬영	-10.5381
▁러	-10.5383
사고	-10.5385
▁한국어	-10.5385
▁으아	-10.5396
됩니다	-10.5397
▁어딜	-10.5397
▁끝에	-10.5398
커플	-10.5399
▁식으로	-10.5403
▁가운데	-10.5403
혼자	-10.5404
몇	-10.5407
▁분위기가	-10.5409
취향	-10.541
▁취급	-10.5411
▁쌀	-10.5416
▁솜	-10.5416
▁깊이	-10.542
▁여러가지	-10.5422
올려	-10.5424
▁유일한	-10.5424
▁기어	-10.5426
li	-10.5432
▁깐	-10.5432
▁주의	-10.5432
한지	-10.5435
▁단체	-10.5435
▁만나고	-10.5437
하진	-10.5437
▁글자	-10.5437
▁자캐	-10.5438
자로	-10.5439
▁넣은	-10.544
▁이제서야	-10.5442
▁못가	-10.5442
▁몰입	-10.5443
중인데	-10.5444
▁버티	-10.5445
냥이	-10.5445
▁아우	-10.5446
▁경우가	-10.5448
▁타이밍	-10.545
잎	-10.5451
▁손목	-10.5452
▁은행	-10.5454
▁아싸	-10.5457
▁매일매일	-10.5463
▁꿈에서	-10.5465
▁한숨	-10.5468
측	-10.5469
킷	-10.5469
▁오버	-10.5471
폼	-10.5472
해져	-10.5472
▁기가	-10.5476
아나	-10.5477
▁너를	-10.5477
▁순위	-10.5478
요즘	-10.548
햐	-10.5482
햇음	-10.5484
▁생겨	-10.5485
▁멜로	-10.5486
ᅲᅲᅮ	-10.5486
코드	-10.5489
▁투자	-10.549
▁보구	-10.5491
▁중인데	-10.5492
▁블루베리	-10.5493
▁남편이	-10.5498
▁케이팝	-10.5504
쩌	-10.5504
▁족발	-10.5514
▁미용실	-10.5515
해줘서	-10.5523
▁의문	-10.5524
▁니네	-10.5526
하이	-10.5527
▁시각	-10.5528
헐	-10.5528
▁지도	-10.5528
줬다	-10.5531
▁다소	-10.5531
▁티셔츠	-10.5536
▁태어나	-10.5536
▁상관없	-10.5538
학과	-10.554
▁생각난다	-10.554
숲	-10.5541
▁오렌지	-10.5545
▁안무	-10.5547
▁안전	-10.5548
▁맛잇	-10.5548
렌즈	-10.5553
순이	-10.5556
▁년생	-10.5562
▁대기	-10.5563
▁오빠가	-10.5565
▁해당	-10.5566
▁펌	-10.5567
껴	-10.5568
▁장미	-10.5572
트로	-10.5576
▁껴	-10.5581
▁베이	-10.5587
▁아니라서	-10.5587
페스	-10.5589
▁아이디어	-10.5593
▁생각하게	-10.5595
▁방식	-10.5596
하다는	-10.56
▁영화에서	-10.56
▁답이	-10.5601
▁스킨	-10.5601
내려	-10.5601
▁흔들	-10.5603
▁걸작	-10.5603
▁인생을	-10.5608
▁냥	-10.561
겐	-10.5612
▁락	-10.5614
뽕	-10.5618
▁해먹	-10.562
병원	-10.5623
▁전까지	-10.5624
모양	-10.5626
지않는	-10.5626
앨범	-10.5626
▁옥수수	-10.5629
줄게	-10.563
보지	-10.5631
▁징	-10.5634
▁여름이	-10.5634
▁했을	-10.5635
일기	-10.5635
▁갤러리	-10.5635
족발	-10.5635
▁요거트	-10.5635
못해	-10.5637
되는데	-10.5637
▁지루	-10.5638
di	-10.5638
▁프로필	-10.5641
▁오타	-10.5641
겹	-10.5642
▁충	-10.5644
▁떴	-10.5644
▁꼬리	-10.5647
▁춥	-10.5648
▁않을까요	-10.5651
야되는데	-10.5651
안돼	-10.5653
▁아니구	-10.5667
▁요가	-10.5677
다이어트	-10.568
▁봐라	-10.568
▁사실을	-10.5681
김에	-10.5681
▁이분	-10.5683
▁이것이	-10.5684
만원	-10.5686
▁미모	-10.5687
한다면	-10.5687
▁속도	-10.5689
시기	-10.569
화가	-10.5692
▁정확히	-10.5692
▁아직까지	-10.5694
하지않	-10.5695
▁셔츠	-10.5696
▁시기	-10.5696
갔는데	-10.57
▁놀러	-10.5702
스케	-10.5704
▁액	-10.5704
▁그대	-10.5704
▁여기저기	-10.5705
장을	-10.5707
▁차별	-10.5708
합시다	-10.5709
▁잠실	-10.571
▁그릇	-10.5711
▁가요	-10.5712
▁노출	-10.5712
▁믿어	-10.5713
▁초반에	-10.5718
▁규	-10.5719
▁버리고	-10.5721
드릴	-10.5721
▁사이트	-10.5723
찾아	-10.5724
▁있을까요	-10.5724
▁일본어	-10.5725
ir	-10.5725
▁자연스럽게	-10.5727
렐	-10.5727
▁카라멜	-10.5729
▁설거지	-10.573
하길	-10.573
▁행복하	-10.573
▁이유로	-10.5736
do	-10.5736
▁활	-10.5738
mi	-10.5739
재미있	-10.574
▁듬뿍	-10.5744
죽어	-10.5744
▁남들	-10.5745
▁좀더	-10.5748
▁v	-10.5748
니스	-10.5749
공주	-10.5752
▁올해는	-10.5757
▁로맨틱	-10.5758
상을	-10.5763
해주셔서	-10.5765
▁생김	-10.5765
▁걷	-10.5767
잖어	-10.5771
▁식물	-10.5775
▁탁	-10.5776
기억	-10.5776
▁결말이	-10.5781
디저트	-10.5782
이잖아	-10.5783
▁마이크	-10.5783
▁버려	-10.5783
첨	-10.5785
▁것들이	-10.5794
▁녀석	-10.5794
▁믿을	-10.5796
주스	-10.5798
다음	-10.58
▁바뀌	-10.5804
▁먹어야지	-10.5807
▁관한	-10.5809
▁가로수길	-10.5816
▁환장	-10.5817
▁끊어	-10.5819
▁립	-10.5821
귀엽다	-10.5822
▁출신	-10.583
▁모른다	-10.5831
파크	-10.5834
▁SF	-10.5838
▁지루하다	-10.5842
▁뮤	-10.5842
그거	-10.5843
▁l	-10.5844
▁갤럭시	-10.5845
끝나고	-10.5845
▁하도	-10.5845
이었어	-10.5849
셀카	-10.585
▁처리	-10.5857
▁업무	-10.5859
▁아하	-10.5861
어용	-10.5862
▁커미션	-10.5863
확	-10.5867
▁끌	-10.5869
▁부스	-10.5871
▁흔한	-10.5872
아주	-10.5876
능력	-10.5876
▁정성	-10.5876
▁첫날	-10.5878
▁맛있고	-10.588
우동	-10.588
싫	-10.5881
▁바닐라	-10.5881
바라	-10.5882
▁조지	-10.5883
▁굽	-10.5884
▁닫	-10.5885
한듯	-10.5887
갈때	-10.5887
어야지	-10.5887
▁않은데	-10.5888
▁다운	-10.5888
▁궁금하	-10.5889
▁먹는다	-10.5891
공연	-10.5891
▁대단하다	-10.5892
▁오오	-10.5893
▁지우	-10.5898
▁태그	-10.5898
스카	-10.59
bb	-10.5901
는거지	-10.5905
시간이	-10.5911
그렇	-10.5911
▁분명히	-10.5914
▁부탁드립니다	-10.5915
▁망할	-10.5917
▁쫄	-10.5918
스티	-10.5919
버렸	-10.5921
▁몬가	-10.5923
▁망한	-10.5927
웃김	-10.5929
는대	-10.5929
냠냠	-10.5932
필요	-10.5933
▁마치고	-10.5934
▁and	-10.5934
▁뚫	-10.5935
▁퇴사	-10.5935
▁갖	-10.5936
▁일하는	-10.5936
탐라	-10.5939
▁두근두근	-10.5943
히는	-10.5946
▁잘생겼	-10.5946
클럽	-10.5948
▁오해	-10.5952
▁먹고싶어	-10.5956
쿤	-10.5961
▁온라인	-10.5962
라구요	-10.5965
▁아무말	-10.5966
▁요기	-10.5967
▁노트	-10.597
드립니다	-10.5971
▁자몽	-10.5977
▁말아	-10.5978
▁핏	-10.598
ᅮᅮᅮᅮᅮ	-10.5981
바로	-10.5982
▁빵순이	-10.5982
▁얼굴을	-10.5983
▁뚝딱	-10.5989
▁햇살	-10.5993
▁점을	-10.5994
▁챙기	-10.5994
애니	-10.5996
내서	-10.5997
▁보호	-10.6002
지기	-10.6002
▁피로	-10.6002
▁테이블	-10.6005
▁못했다	-10.6005
▁싶지만	-10.6005
▁어린이집	-10.6007
▁하실	-10.6009
만으로	-10.6009
▁작품이	-10.6009
▁설탕	-10.601
▁넣어서	-10.601
▁수밖에	-10.6012
▁히어로	-10.6012
▁뒤에서	-10.6015
▁쉬고	-10.6018
혔	-10.6018
맞아	-10.602
▁다짐	-10.602
아냐	-10.6022
▁쓴다	-10.6024
▁내사랑	-10.6026
▁헤테로	-10.6028
▁들어와서	-10.6029
▁겉	-10.603
▁독립	-10.6032
춤	-10.6034
저도	-10.6035
▁신세계	-10.6036
▁갠	-10.6038
컨	-10.6039
▁사랑에	-10.6039
▁톤	-10.6041
▁좋았어요	-10.6043
▁그래픽	-10.6046
▁날아	-10.6047
▁운동녀	-10.6047
▁밝	-10.6047
▁보컬	-10.6048
▁마스터	-10.6052
▁맞추	-10.6053
▁쏙	-10.6053
ling	-10.6053
▁델	-10.6053
▁한장	-10.6055
▁된다는	-10.6056
으루	-10.6056
다녀	-10.6057
▁얼마전	-10.6059
천재	-10.606
빅	-10.6065
▁뭐임	-10.607
퀘	-10.6071
▁보낸	-10.6071
▁전자	-10.6072
▁찾기	-10.6074
▁재밌었다	-10.6074
▁봐주	-10.6074
▁다닐	-10.6076
경이	-10.6077
▁트친들	-10.6078
메이	-10.6079
▁겟	-10.6079
▁사온	-10.6084
▁헛소리	-10.6086
▁사면	-10.6086
▁이렇게까지	-10.6087
있는거	-10.6088
맞팔선팔소통	-10.6088
▁활용	-10.6089
▁얼마전에	-10.6091
하잖아	-10.6093
▁됐는데	-10.6094
▁코코넛	-10.6099
감사	-10.6099
우면	-10.61
▁제이	-10.61
안되	-10.6101
▁향기	-10.6105
▁누구나	-10.6105
▁지키	-10.6106
▁뜯어	-10.6108
▁얘는	-10.6112
▁웹툰	-10.6113
▁축제	-10.6114
했다가	-10.6114
늬	-10.6116
▁테스트	-10.6116
▁심리	-10.6117
▁보이지	-10.6118
▁옷이	-10.6118
▁골목	-10.6119
부산	-10.6119
▁개연성	-10.612
▁있겠	-10.6122
▁잘라	-10.6123
▁여행스타그램	-10.6124
든다	-10.6124
▁생각한	-10.6126
▁발음	-10.6127
▁듀	-10.6127
나가는	-10.6129
▁심한	-10.613
▁ᅮᅮᅮᅮ	-10.613
진자	-10.6131
▁더운	-10.6135
▁손톱	-10.6136
주시면	-10.6136
다보면	-10.6136
큼	-10.6139
▁사랑한다	-10.614
▁괜찮을	-10.6141
▁생각해요	-10.6141
▁고려	-10.6141
▁사망	-10.6146
▁지적	-10.6148
햄	-10.615
▁건대	-10.6151
토리	-10.6152
▁안되고	-10.6153
▁한국에	-10.6154
자랑	-10.6156
▁편한	-10.6157
▁그랬는데	-10.6157
들끼리	-10.6157
▁보라	-10.6157
▁맞이	-10.616
▁단순	-10.6161
나니	-10.6164
좋음	-10.6166
▁하나로	-10.6167
타르트	-10.6167
▁잔잔한	-10.6172
▁보자마자	-10.6173
▁생각해보면	-10.6175
스크	-10.6178
이었고	-10.618
▁극장판	-10.6181
▁천연	-10.6181
▁웃어	-10.6183
▁등록	-10.6184
▁회복	-10.6184
▁밖	-10.6187
▁읽은	-10.6187
▁무엇을	-10.6189
▁위치한	-10.619
입니당	-10.6194
▁롱	-10.6194
▁해줄	-10.6194
▁모모	-10.6197
▁여자들	-10.6198
▁먹자	-10.62
▁기존	-10.6206
▁봄이	-10.6208
하자마자	-10.6213
▁느꼈	-10.6214
만이	-10.6215
▁그들의	-10.6215
딴	-10.6218
▁이루	-10.6218
▁되니까	-10.6219
만화	-10.6219
녜	-10.622
▁허무	-10.6222
것같아	-10.6224
▁분은	-10.6224
바디	-10.6224
파리	-10.6224
▁신기한	-10.6226
▁사람에게	-10.6226
▁글씨	-10.6227
▁낮잠	-10.6228
▁애들은	-10.6231
▁굶	-10.6232
▁다행히	-10.6234
▁만점	-10.6234
▁싱	-10.6236
▁되었습니다	-10.6236
▁떨어져	-10.6236
혹	-10.6238
▁마음의	-10.6241
▁없애	-10.6242
해여	-10.6242
▁한입	-10.6243
▁버섯	-10.6244
르르	-10.6244
▁하나의	-10.6245
어케	-10.6246
아니고	-10.6248
었는지	-10.6249
쌍	-10.6252
▁조선	-10.6255
웟	-10.6257
찍어	-10.6257
▁주차	-10.6257
▁브리	-10.6257
▁ᄒᄒᄒᄒ	-10.6257
자면	-10.6258
▁재미는	-10.6259
영화를	-10.626
▁정체	-10.626
▁언론	-10.6266
률	-10.6268
부리	-10.6268
▁핫한	-10.6268
야돼	-10.6268
냈	-10.6268
ny	-10.6269
▁덕에	-10.6269
▁여기가	-10.627
붕	-10.6271
▁칭구	-10.6275
봤어	-10.6277
으셨	-10.6278
뒀	-10.6279
▁여주인공	-10.6279
▁폭발	-10.6279
가자	-10.6281
▁덤	-10.6282
▁녹음	-10.6282
▁동의	-10.6287
▁집착	-10.6289
▁인용	-10.6291
▁트위터에서	-10.6291
▁시스템	-10.6293
해지고	-10.6296
▁미친듯이	-10.6297
▁데려가	-10.6299
▁재미있다	-10.6299
▁배우들이	-10.63
▁도로	-10.6301
출근	-10.6302
▁닿	-10.6304
▁특정	-10.6306
▁신이	-10.6307
▁달래	-10.6313
▁알앗	-10.6313
▁해보고	-10.6314
▁깜	-10.6318
수있는	-10.6318
▁모르지만	-10.632
▁단지	-10.6322
스토어	-10.6323
▁발언	-10.6324
▁한쪽	-10.6324
▁글이	-10.6326
것처럼	-10.6326
▁태도	-10.6327
귀엽	-10.6328
▁퇴근하고	-10.6328
▁유독	-10.6328
륵	-10.6331
▁단계	-10.6334
▁술집	-10.6334
장에	-10.6337
▁전기	-10.6337
▁중요	-10.6341
겟음	-10.6342
때까지	-10.6342
▁주장	-10.6342
▁힐	-10.6342
▁할거	-10.6345
▁너가	-10.6347
▁논리	-10.6348
있지	-10.6348
▁삶이	-10.6349
▁파이팅	-10.635
▁살까	-10.6352
▁때문이	-10.6356
니아	-10.6356
▁차려	-10.6358
이브	-10.6361
헤어	-10.6363
랐	-10.6364
▁딜	-10.6365
▁인해	-10.6367
▁똑	-10.6368
▁바뀐	-10.637
▁절반	-10.637
야식	-10.6375
▁귀가	-10.6379
든가	-10.6382
▁맥락	-10.6383
텍	-10.6383
넷	-10.6386
더라고	-10.6387
▁쉽지	-10.6389
▁감각	-10.639
▁노는	-10.6391
그만	-10.6392
같아서	-10.6392
▁권력	-10.6393
▁출처	-10.6394
대신	-10.6398
▁스마트폰	-10.6398
▁숫자	-10.6398
▁부를	-10.6401
케이스	-10.6404
회사	-10.6406
▁조심	-10.6408
▁메일	-10.6408
체험	-10.641
▁높아	-10.6413
에만	-10.6413
▁사먹	-10.6414
▁즐기	-10.6416
▁넷플	-10.6419
▁일일	-10.642
냐고요	-10.6422
▁종로	-10.6425
▁피곤해	-10.6429
극장	-10.643
▁포항	-10.643
▁들으면서	-10.6431
델	-10.6432
▁배우가	-10.6437
▁출산	-10.6441
▁빠지	-10.6442
▁태양	-10.6443
▁묘	-10.6444
▁돌아온	-10.6448
랍	-10.6449
▁있구나	-10.6449
▁배운	-10.6451
▁j	-10.6452
ᅩ	-10.6452
▁도망	-10.6454
▁없으니	-10.6461
▁하고싶다	-10.6462
▁잼있	-10.6463
끝나	-10.6467
겨서	-10.6467
기고	-10.6468
입니까	-10.6472
▁톰	-10.6473
▁죽이	-10.6474
즐	-10.6481
▁자야	-10.6483
신다	-10.6483
▁ma	-10.6484
▁필요가	-10.6486
력을	-10.6486
▁낚	-10.6487
엔딩	-10.6487
▁들어보	-10.6488
▁컨텐츠	-10.6489
▁잠만	-10.6489
▁이마트	-10.649
▁이유를	-10.649
▁춘	-10.649
▁마법	-10.6491
▁ᅮᅲ	-10.6492
▁웃으면서	-10.6493
▁심정	-10.6493
▁어렸을	-10.6494
▁기자	-10.6494
▁보낼	-10.6495
여성	-10.6499
▁만든다	-10.65
▁한개	-10.6501
램	-10.6502
▁읽기	-10.6506
▁이런게	-10.6508
지원	-10.6508
▁안될	-10.6509
▁그분	-10.651
자기	-10.651
낙	-10.6514
계란	-10.6514
▁그걸로	-10.6518
▁살았	-10.652
▁로봇	-10.6521
▁변화	-10.6524
▁투어	-10.6528
쌈	-10.6528
▁정답	-10.6534
님께서	-10.6536
▁아이템	-10.6537
▁냉장고	-10.6538
나보다	-10.6539
▁나왓	-10.6539
om	-10.6542
▁귀찮아	-10.6543
▁멤버들	-10.6547
받아서	-10.6548
▁색깔	-10.6551
욜	-10.6551
만나	-10.6551
▁속으로	-10.6555
쟝	-10.6557
▁수제	-10.6559
▁매콤	-10.6559
▁나쁘지	-10.6562
깐	-10.6564
▁욱	-10.6566
▁명동	-10.6569
드러	-10.6569
색이	-10.657
▁책임	-10.657
▁버거	-10.6575
▁스엠	-10.6578
룬	-10.6579
▁초등학교	-10.658
▁사랑스러운	-10.658
▁전시회	-10.658
▁먹는데	-10.6586
▁컨	-10.6587
▁엑	-10.659
▁썩	-10.6592
아아아	-10.6594
▁끼고	-10.6594
▁덕후	-10.6595
▁봤지만	-10.6599
▁있었고	-10.66
▁봤음	-10.6602
▁만한	-10.6602
▁인생의	-10.6602
▁중년	-10.6605
▁올라온	-10.6606
좋아요	-10.6609
마니	-10.6613
▁빌리	-10.6617
▁힘들어서	-10.6619
▁작성	-10.6622
▁시부터	-10.6623
▁놔	-10.6624
▁시원	-10.6626
▁훈	-10.6626
▁화질	-10.6627
▁언제까지	-10.6628
▁뒤져	-10.6631
▁으으	-10.6631
▁고향	-10.6633
탓	-10.6633
▁여의도	-10.6635
카레	-10.6636
렵	-10.6636
임을	-10.6636
일듯	-10.6639
쪽에	-10.6639
▁셀피	-10.664
략	-10.6641
▁불가능	-10.6641
▁강제	-10.6641
모드	-10.6642
장르	-10.6645
싹	-10.6648
리를	-10.6651
▁정주행	-10.6652
표정	-10.6652
▁드시	-10.6652
▁수분	-10.6653
▁회의	-10.6654
▁줄줄	-10.6657
▁그녀	-10.666
▁아이패드	-10.666
▁없던	-10.6661
▁놈들	-10.6661
번호	-10.6662
르륵	-10.6662
▁닭가슴살	-10.6665
▁여행을	-10.6669
▁터지	-10.667
▁마트	-10.6671
플레이	-10.6673
칼국수	-10.6674
▁겨울에	-10.6675
▁톡	-10.6675
▁싶으면	-10.6676
▁필름	-10.6677
▁파란	-10.6677
▁황금	-10.6677
티비	-10.6679
art	-10.6681
앞에서	-10.6684
ow	-10.6685
받을	-10.6686
▁없으니까	-10.6688
▁훨	-10.6689
▁허벅지	-10.6689
함과	-10.669
▁조사	-10.6692
▁예능	-10.6693
▁모든게	-10.6694
▁사랑합니다	-10.6695
▁파판	-10.6698
▁나이가	-10.6702
▁모르겠어	-10.6703
▁Repost	-10.6703
행사	-10.6703
▁아니냐고	-10.6707
▁이곳	-10.6707
▁이대로	-10.6707
▁인테리어	-10.671
단다	-10.6712
하셔서	-10.6715
▁있죠	-10.6717
수는	-10.6717
죵	-10.6718
▁확신	-10.6721
▁즐기는	-10.6723
▁환상	-10.6725
▁흐흑	-10.6726
▁짬	-10.6726
보임	-10.673
out	-10.6733
▁해물	-10.6733
베이커리	-10.6734
▁배터리	-10.6734
나들이	-10.6735
▁요거	-10.6736
ap	-10.6736
칙	-10.6738
▁느낌을	-10.6738
▁안고	-10.6738
▁CG	-10.6738
▁목사님	-10.6739
앞에	-10.6739
지지	-10.6739
ᅧ	-10.674
일본	-10.6741
▁일산	-10.6741
▁제로	-10.6744
소녀	-10.6747
ᄊ	-10.6748
▁쌀국수	-10.675
궈	-10.6755
▁생각하	-10.6756
쳤다	-10.6758
▁주먹	-10.6759
▁제목이	-10.6759
든지	-10.676
▁무서워서	-10.6761
▁허접	-10.6761
밧	-10.6762
▁디테일	-10.6763
▁타이틀	-10.6763
넛	-10.6763
▁ᄇᄅ	-10.6764
▁고전	-10.6767
▁주식	-10.6767
ᅲᅲᅲᅲᅲᅲᅲᅲᅲᅲ	-10.6767
▁자동	-10.6767
콘서트	-10.6772
▁괜찮은데	-10.6775
▁에피소드	-10.6777
▁팬픽	-10.6782
▁페미니즘	-10.6785
았던	-10.6785
▁한거	-10.6788
그렇게	-10.6788
▁고고	-10.679
▁어디까지	-10.6791
▁삿	-10.6791
▁동화	-10.6793
다구요	-10.6794
ᄃᄃ	-10.6796
▁영상미	-10.6797
였지만	-10.6797
▁다정	-10.6798
▁처음에	-10.6798
▁메리	-10.6799
시에	-10.6805
▁ch	-10.6805
▁세븐일레븐	-10.6807
흘	-10.6808
▁볼수	-10.681
프라	-10.6811
▁화보	-10.6812
▁안대	-10.6813
▁긁	-10.6814
▁love	-10.6816
야하나	-10.6817
▁야근	-10.6819
좆	-10.682
자와	-10.682
캠	-10.6821
▁사랑의	-10.6824
곱	-10.6826
▁마지막으로	-10.6832
▁미치	-10.6833
사리	-10.6833
이드	-10.6834
▁생각할	-10.6834
▁집사	-10.6834
▁모름	-10.6837
▁달콤	-10.6838
▁불편	-10.6839
▁린	-10.6842
▁rt	-10.6842
▁민망	-10.6842
모자	-10.6844
▁소장	-10.6845
덤	-10.6847
아직	-10.6848
아저씨	-10.6848
▁안들어	-10.6852
▁러시아	-10.6852
▁목욕	-10.6853
▁희생	-10.6854
▁볼만한	-10.6854
▁힙	-10.6858
▁잤	-10.6858
시키고	-10.6858
인디	-10.6863
▁갈비	-10.6866
밴드	-10.6866
갈까	-10.6866
▁비타민	-10.6869
▁사람들을	-10.6875
▁쉬는	-10.6877
ig	-10.6878
하트	-10.6878
▁덥다	-10.6878
오일	-10.6879
▁좋았고	-10.6879
▁근무	-10.6881
▁먹었던	-10.6882
▁리스트	-10.6884
▁사귀	-10.6884
▁다이어트계정	-10.6885
▁눈으로	-10.6887
▁아웃	-10.6891
라는데	-10.6891
▁살아야	-10.6898
눈데	-10.6898
▁낸	-10.6901
▁시작하는	-10.6902
하길래	-10.6904
▁쌈	-10.6904
▁너무좋아	-10.6907
맞는	-10.691
▁주기	-10.6911
instafood	-10.6912
▁후반	-10.6913
▁행복하다	-10.6913
▁잭	-10.6914
▁자리에	-10.6916
케어	-10.6917
슷	-10.6917
▁바닥에	-10.6918
▁다녀왔	-10.6919
▁될까요	-10.692
미다	-10.6921
▁중간중간	-10.6922
▁콜라	-10.6924
▁녹아	-10.6925
▁말이다	-10.6928
인건	-10.6929
▁멜론	-10.6929
▁레전드	-10.6929
먹어서	-10.693
ers	-10.6931
▁맛을	-10.6932
▁보냈	-10.6932
그라	-10.6933
▁InstaSize	-10.6933
지않은	-10.6935
▁느끼게	-10.6941
르는	-10.6942
▁목소리가	-10.6943
▁ᄏᄐ	-10.6945
▁벌레	-10.6949
▁마침	-10.6949
▁끈	-10.695
▁처돌이	-10.695
어여	-10.695
시킨	-10.695
ay	-10.6952
▁오리지널	-10.6959
▁특징	-10.6959
스킨	-10.6961
▁센	-10.6962
▁찰떡	-10.6964
왔던	-10.6967
▁단발	-10.6967
언니가	-10.6967
살이	-10.6968
님을	-10.6969
▁같네	-10.6969
▁쌓	-10.6974
ack	-10.6974
▁짧	-10.6978
▁길어	-10.6978
▁지난주	-10.6979
OO	-10.6979
▁이러다	-10.698
▁나누	-10.6981
▁스콘	-10.6982
▁도와주	-10.6985
▁카페에서	-10.6985
▁싶었	-10.6988
▁순수	-10.6998
예뻐	-10.7002
좋아하는	-10.7002
▁별루	-10.7003
가는데	-10.7004
go	-10.7006
▁드러	-10.7007
▁정도면	-10.7007
▁미쳤	-10.7007
▁엄청나게	-10.7008
▁트윗을	-10.7009
계속	-10.701
▁부천	-10.7013
트친	-10.7014
히히	-10.7016
▁되나요	-10.7017
▁소금	-10.7018
▁개빡쳐	-10.7018
민이	-10.702
▁옛	-10.7021
버섯	-10.7024
▁빵빵	-10.7026
▁ᅥ	-10.7031
▁쫄깃	-10.7034
되기	-10.7034
가게	-10.704
둠	-10.7041
▁곳은	-10.7041
▁괜찮다	-10.7043
야할	-10.7044
▁인간은	-10.7044
▁유머	-10.7046
▁변태	-10.7049
랬	-10.7049
▁밝혀	-10.7051
▁사무실	-10.7053
▁의견	-10.7053
▁중반	-10.7054
펀	-10.7054
▁고급	-10.7055
처리	-10.7055
▁어른이	-10.7055
▁어설픈	-10.7056
▁지워	-10.7059
▁포도	-10.7062
▁목적	-10.7062
▁스케줄	-10.7071
▁일도	-10.7073
▁신기하다	-10.7073
▁허락	-10.7073
▁싶다고	-10.7076
▁햇빛	-10.7079
▁헤이	-10.708
▁젖	-10.7081
▁마피아	-10.7083
거같애	-10.7084
▁아픔	-10.7084
▁안좋	-10.7085
▁국제	-10.7087
▁어색	-10.7088
▁김에	-10.7088
▁그렇군요	-10.709
▁뭐하는	-10.709
▁바르	-10.7093
▁싫고	-10.7094
윽	-10.7094
▁계단	-10.7094
▁형제	-10.7095
들어서	-10.7098
▁이걸로	-10.7099
라이스	-10.7104
▁클럽	-10.7107
▁헌	-10.7108
▁될까	-10.7109
라이	-10.7112
▁되겠	-10.7115
쌀	-10.7116
▁저러	-10.7116
▁어캐	-10.7119
▁싶었다	-10.7119
윈	-10.7119
▁이해할	-10.712
▁맡	-10.712
▁하고싶은	-10.7122
립니다	-10.7123
▁주간	-10.7124
▁움직이	-10.7125
▁비록	-10.7125
▁오랜	-10.7126
▁만들어진	-10.7133
▁경쟁	-10.7134
▁넘치는	-10.7134
▁어이가	-10.7135
▁알겠	-10.7136
도리	-10.7136
겠는데	-10.7137
▁범인	-10.7138
▁무척	-10.7138
▁뒤늦게	-10.7141
▁구워	-10.7141
▁감동을	-10.7143
▁넘기	-10.7144
▁이것은	-10.7145
▁미술	-10.7146
넴	-10.7147
▁정식	-10.7147
▁영화였다	-10.7148
▁화려한	-10.7148
비치	-10.7149
▁메세지	-10.7149
▁했다고	-10.7149
▁베이스	-10.715
▁얘가	-10.7151
야하는	-10.7153
보라	-10.7155
▁속초	-10.7156
싶다	-10.7159
▁co	-10.7161
▁잇을	-10.7162
▁코드	-10.7164
▁가보	-10.7165
▁차이가	-10.7166
▁펴	-10.7167
▁꺅	-10.7168
ye	-10.7168
▁얘기가	-10.7169
▁집어	-10.717
▁아껴	-10.7171
냉면	-10.7172
넨	-10.7174
▁어딘가	-10.7176
키친	-10.7179
▁캠핑	-10.7182
먹스타맛스타먹스타그램	-10.7182
▁재밌는데	-10.7183
▁엇	-10.7189
엥	-10.7191
▁이런영화	-10.7191
▁이러면	-10.7192
▁재밌었	-10.7194
펌	-10.7195
감성	-10.7196
▁해장	-10.7202
▁그러지	-10.7203
었다고	-10.7203
대표	-10.7205
것같은	-10.7205
살려	-10.7206
▁센터	-10.7207
도없고	-10.7208
▁있냐	-10.7209
▁축하드려요	-10.721
썼	-10.7216
썸	-10.7218
▁옹	-10.7219
▁보수	-10.7219
▁안보이	-10.7219
▁지점	-10.722
제품	-10.7221
▁싶습니다	-10.7221
분들이	-10.7222
▁것보다	-10.7222
겟네	-10.7226
조각	-10.7229
▁않았는데	-10.723
▁키워	-10.7231
▁실험	-10.7232
▁이브	-10.7232
▁말라	-10.7237
▁들어가면	-10.7241
▁향이	-10.7243
▁전통	-10.7246
▁그러는	-10.7249
▁기대하고	-10.7251
▁처음엔	-10.7254
▁추억의	-10.7255
▁드립니다	-10.7255
▁멍청한	-10.7257
▁이번달	-10.7257
는건가	-10.7259
▁내고	-10.7259
▁불렀	-10.7259
신기	-10.7262
▁살아남	-10.7267
▁알았어	-10.7269
▁for	-10.727
하기로	-10.727
▁싼	-10.727
ga	-10.7274
no	-10.7274
▁발견한	-10.7276
계의	-10.7277
▁섭	-10.7282
▁신기해	-10.7287
즤	-10.7288
▁이성	-10.7288
싸움	-10.7289
▁사라지	-10.7291
▁잊고	-10.7294
▁다음엔	-10.7294
▁불법	-10.7296
▁아시는	-10.7297
안나	-10.7297
▁kg	-10.7298
▁아몬드	-10.7298
▁대상	-10.7299
▁틈	-10.7299
▁크레	-10.73
과는	-10.7301
▁선정	-10.7302
▁필요하다	-10.7303
▁귀엽게	-10.7304
캐릭터	-10.7305
▁상품	-10.7307
▁세개	-10.7308
▁마자요	-10.731
버리기	-10.7312
자들이	-10.7313
이었습니다	-10.7313
▁저에게	-10.7316
아트	-10.7319
겟어	-10.732
▁링	-10.7321
▁맛있었	-10.7324
▁내용을	-10.7325
▁요소	-10.7326
▁좋겟다	-10.7326
갸	-10.7328
솜	-10.7331
지루	-10.7332
est	-10.7333
▁찾고	-10.7333
▁전작	-10.7336
▁맛있었다	-10.7336
▁음원	-10.7336
차이	-10.7336
▁나보고	-10.7337
▁젠장	-10.7337
해진다	-10.7338
산책	-10.7338
▁생크림	-10.7338
▁않기	-10.7338
냐구요	-10.7339
▁편인데	-10.7339
▁감독은	-10.7341
▁허니	-10.7341
▁날짜	-10.7343
▁일어난	-10.7347
▁잠들	-10.7347
가든	-10.7348
▁미드	-10.7349
▁갸	-10.735
▁몰랏	-10.735
었나	-10.7351
소통	-10.7352
▁빙수	-10.7353
▁r	-10.7356
엄청	-10.7357
▁냉면	-10.7359
▁나가는	-10.7363
▁역대급	-10.7365
▁잘못된	-10.7365
▁선물로	-10.7365
▁태어난	-10.7366
▁필터	-10.7367
햇어요	-10.7371
▁넘어서	-10.7372
같고	-10.7374
▁놀러가	-10.7376
나온다	-10.7378
형이	-10.7379
▁이라고	-10.7383
▁위꼴사	-10.7384
▁잘하고	-10.7384
▁시사회	-10.7385
pa	-10.7385
▁아앗	-10.7386
▁맞춰서	-10.7389
▁스토리는	-10.739
▁꼬마	-10.7391
▁수는	-10.7392
▁술을	-10.7395
로만	-10.7395
▁고정	-10.7396
긴다	-10.7396
로서	-10.7398
연이	-10.7399
▁발목	-10.74
ᅲᅮᅲ	-10.74
▁감동적인	-10.74
궁금	-10.74
▁기업	-10.7404
받았	-10.7404
▁있다니	-10.7405
수를	-10.7407
▁후배	-10.7407
▁있는게	-10.7408
버렷	-10.7408
▁곤	-10.7408
▁브라	-10.7411
굼	-10.7414
야징	-10.7414
모닝	-10.7415
것같음	-10.7415
▁덮	-10.7416
이랍니다	-10.7417
▁바꿀	-10.7418
ge	-10.7419
과의	-10.7421
▁싸인	-10.7423
▁다음날	-10.7424
▁생각남	-10.7424
▁리트윗	-10.7426
▁남을	-10.7427
▁스크린	-10.7428
▁할일	-10.7433
▁성별	-10.7434
▁보내는	-10.7436
▁클리어	-10.7439
▁스테	-10.744
▁찾아가	-10.7441
▁김영	-10.7442
▁경수	-10.7442
▁용기	-10.7442
▁퓨	-10.7443
▁합격	-10.7443
▁공원	-10.7445
물론	-10.7446
▁득템	-10.7446
▁드뎌	-10.7446
▁인디	-10.7447
되게	-10.7449
▁아니었	-10.7451
▁들어온	-10.7453
아이돌	-10.7453
레스	-10.7454
장에서	-10.7455
▁후반부	-10.7457
▁포켓몬	-10.7457
▁열일	-10.7457
어떻게	-10.7458
▁교훈	-10.7462
▁생생	-10.7466
상황	-10.7468
▁코디	-10.7469
▁느끼고	-10.7469
▁호선	-10.7471
▁탄생	-10.7471
▁많음	-10.7473
▁말한	-10.7473
▁가리	-10.7475
q	-10.7475
▁날라	-10.7478
▁동명동	-10.7479
라고요	-10.748
송이	-10.7481
러가	-10.7485
▁기운	-10.7486
시아	-10.7486
▁멘	-10.7489
▁생각만	-10.7491
▁대학원	-10.7491
다니는	-10.7495
▁맠	-10.7497
들에	-10.7499
▁아닐까요	-10.75
▁등산	-10.75
▁앓	-10.7513
가고싶다	-10.7514
▁부탁드려요	-10.7515
▁지각	-10.7516
▁속편	-10.7516
▁자체는	-10.7518
▁썸	-10.7519
▁입맛	-10.752
냈다	-10.752
▁냥스타그램	-10.7521
ER	-10.7524
삼겹살	-10.7524
▁사라져	-10.7525
▁놀이	-10.7526
▁숲	-10.7527
▁직캠	-10.7527
▁시작해서	-10.7528
▁개판	-10.7528
▁감정을	-10.753
▁볼만	-10.7531
▁나고	-10.7532
말을	-10.7532
▁후원	-10.7532
누가	-10.7532
▁피부가	-10.7532
▁첨에	-10.7533
▁뮤트	-10.7533
▁강원도	-10.7534
일까요	-10.7536
요정	-10.7536
▁여혐	-10.7537
시오	-10.7538
▁하여튼	-10.7542
없네	-10.7542
▁반지	-10.7544
▁어째	-10.7545
▁쏟아	-10.7547
들어가	-10.7547
▁표정이	-10.7547
뉘	-10.7549
스코	-10.7551
ᄒᄒᄒᄒ	-10.7551
▁먹으면서	-10.7551
▁만들지	-10.7555
▁옮겨	-10.7557
님한테	-10.7561
벗	-10.7563
으론	-10.7564
▁바라는	-10.7564
▁건너	-10.7565
아ᅡ	-10.7566
겻	-10.7569
▁월의	-10.757
▁지하	-10.757
따위	-10.7571
▁찡	-10.7572
▁신난다	-10.7574
보드	-10.7576
강아지	-10.7577
뤼	-10.7582
쿠션	-10.7587
▁보여주고	-10.759
▁기쁨	-10.7592
▁자다가	-10.7592
▁찾았	-10.7594
▁비오	-10.7597
▁모여	-10.7597
이어	-10.7598
▁들어오는	-10.7599
▁안양	-10.7601
▁잇엇	-10.7602
▁함께하는	-10.7603
쯔	-10.7604
▁광안리	-10.7605
▁펼쳐	-10.7606
▁율	-10.7606
제일	-10.7607
▁어느새	-10.7608
▁천러	-10.7609
대체	-10.7611
▁사용하는	-10.7612
▁읽어보	-10.7612
쉐	-10.7612
▁궁금한	-10.7615
▁찾은	-10.7616
고싶음	-10.7617
트라	-10.7617
▁꿀맛	-10.7621
▁휴일	-10.7622
▁부르고	-10.7623
▁우동	-10.7624
▁눕	-10.7624
▁외국인	-10.7626
점을	-10.7627
▁좀만	-10.7627
▁뺏	-10.7627
▁말리	-10.7628
ai	-10.7629
foodgasm	-10.7629
▁수입	-10.7631
▁살기	-10.7631
▁영화네요	-10.7631
▁생각에	-10.7631
문학	-10.7632
▁썼다	-10.7632
▁사람들에게	-10.7633
▁성경	-10.7634
im	-10.7635
▁가능성	-10.7636
▁있겠지	-10.7638
▁중심	-10.7638
쿨	-10.7642
프레	-10.7643
▁기숙사	-10.7646
과일	-10.7647
mo	-10.7648
▁누워	-10.7648
▁답변	-10.7649
물을	-10.7649
▁했었는데	-10.7651
영화가	-10.7651
▁티알	-10.7652
▁라이	-10.7652
방에	-10.7652
▁영광	-10.7652
▁구멍	-10.7658
깡	-10.7661
뼈	-10.7662
▁가벼운	-10.7662
대기	-10.7666
되어서	-10.7667
지않아	-10.7669
▁갱	-10.7669
ᆞ	-10.7671
▁맞나	-10.7671
▁런던	-10.7672
집이	-10.7675
버린다	-10.7677
▁하셨	-10.7678
놈들아	-10.7679
▁뭐라도	-10.768
▁코엑스	-10.768
▁좋았음	-10.768
▁차지	-10.7684
졌어	-10.7684
▁마을	-10.7686
멍	-10.7686
▁씁쓸	-10.7687
▁태어나서	-10.7689
자식	-10.769
쉽	-10.7695
▁읽으	-10.7697
줬는데	-10.7697
▁사실은	-10.77
▁인스타그램	-10.77
▁출근길	-10.77
▁걸린	-10.7701
▁채우	-10.7701
거같은	-10.7702
▁걷는	-10.7704
▁라멘	-10.7704
▁공부를	-10.7706
▁스물	-10.7707
▁싶기도	-10.7708
▁다녔	-10.7714
▁알아보	-10.7714
정식	-10.7718
▁당분간	-10.7719
치즈케이크	-10.772
▁감히	-10.7723
햇던	-10.7724
▁뭉	-10.7726
해주신	-10.7727
아기	-10.773
븐	-10.7733
▁쉴	-10.7734
▁발생	-10.7734
▁오류	-10.7739
▁기대를	-10.7741
ᅲᅳᅲ	-10.7742
▁즐길	-10.7747
▁인지	-10.7749
들로	-10.7753
▁어울리	-10.7753
습니까	-10.7753
하려면	-10.7753
▁물에	-10.7754
답게	-10.7755
쳣	-10.7757
▁누르	-10.7759
마카롱	-10.7763
▁회사에서	-10.7765
▁발연기	-10.7766
주인공	-10.7766
알티	-10.7766
▁시점	-10.7767
▁안정	-10.7768
stagram	-10.7769
얀	-10.7769
▁아는데	-10.7769
동이	-10.7769
▁고개	-10.777
▁어려워	-10.7771
▁아무나	-10.7772
▁이쁘게	-10.7772
▁식빵	-10.7772
엉엉	-10.7773
쑤	-10.7776
▁돌아가는	-10.7776
뚱	-10.7778
▁고맙	-10.7779
▁넷	-10.7781
광고	-10.7782
누구	-10.7783
▁느낌으로	-10.7784
셔도	-10.7785
▁가려고	-10.7786
▁자매	-10.7788
▁기부	-10.779
▁문구	-10.7791
▁그런건	-10.7792
▁상태로	-10.7794
▁아보카도	-10.7794
초밥	-10.7794
▁움짤	-10.7795
pe	-10.7795
▁띵	-10.7796
▁고맙다	-10.7802
▁학교에	-10.7802
뜬	-10.7802
▁스페인	-10.7803
▁노란	-10.7804
대고	-10.7804
▁털어	-10.7804
조합	-10.7805
ee	-10.7806
▁만들면	-10.7807
크림치즈	-10.7808
▁최강	-10.7811
▁상큼	-10.7812
▁안먹	-10.7812
ation	-10.7813
▁원인	-10.7814
버튼	-10.7814
▁들어와	-10.7815
▁ᄋᄌ	-10.7815
▁잡는	-10.7816
ᅲᅲᅲᅲᅲᅲᅲᅲᅲᅲᅲᅲᅲᅲᅲ	-10.7817
▁분에	-10.7817
▁즐거워	-10.7818
ᅲᅲᅲᅮ	-10.7818
▁리메이크	-10.7818
쁠	-10.7822
왔어	-10.7822
▁스포츠	-10.7824
▁캐릭터가	-10.7825
▁기독교	-10.7827
▁살리	-10.783
▁것과	-10.783
▁수치	-10.783
▁댄스	-10.7831
이러	-10.7832
있습니다	-10.7836
▁세번	-10.7836
었지	-10.7837
▁울컥	-10.7837
▁마다	-10.7838
▁몰랐는데	-10.7838
▁언니랑	-10.7841
▁추운	-10.7844
▁영양	-10.7844
▁담주	-10.7849
▁좆같은	-10.7849
▁색감	-10.7854
겟습니다	-10.7856
▁띠	-10.7857
▁편견	-10.786
▁클래식	-10.7862
흡	-10.7862
mon	-10.7863
▁밀려	-10.7863
▁끝나는	-10.7864
▁좋겠네요	-10.7864
▁파일	-10.7865
할거야	-10.7865
하더라	-10.7867
▁안하는	-10.7868
우는	-10.7871
▁하길래	-10.7872
▁방에	-10.7873
기때문에	-10.7874
지나	-10.7875
▁진한	-10.7875
▁키로감량녀	-10.7876
▁어쩌지	-10.7876
▁안나오	-10.7879
▁깔아	-10.7881
▁별거	-10.7881
▁걔네	-10.7882
▁힘들고	-10.7883
▁공구	-10.7883
▁참석	-10.7883
오브	-10.7883
▁진지	-10.7885
▁귀여웠	-10.7886
되어있	-10.7891
▁눈물을	-10.7894
▁시선	-10.7894
▁거면	-10.7895
▁가족들	-10.7898
▁무사히	-10.7903
▁조와	-10.7904
▁로또	-10.7905
▁있었지만	-10.7906
▁익숙한	-10.7906
▁럽	-10.7909
▁대리	-10.791
▁간장	-10.7913
있었다	-10.7914
▁로즈	-10.7915
▁달린	-10.7917
▁똑똑	-10.7918
▁앵	-10.7918
▁띄	-10.7919
▁멋지다	-10.792
▁라이언	-10.7921
▁생각해보니까	-10.7922
새요	-10.7922
▁이하	-10.7923
▁머글	-10.7923
▁책은	-10.7923
나이	-10.7926
up	-10.7927
▁느껴진다	-10.7928
쁘	-10.7929
▁이대	-10.793
▁감동적이	-10.793
하지도	-10.793
▁학생들	-10.7933
▁엽서	-10.7937
▁망원동	-10.7937
없는데	-10.794
▁인분	-10.794
▁설교	-10.7943
댈	-10.7946
▁y	-10.7947
▁젊	-10.7947
▁섹	-10.7948
ul	-10.7948
▁나오네	-10.7949
플레	-10.7951
니당	-10.7953
납	-10.7954
기위해	-10.7954
하냐고	-10.7955
간지	-10.7955
▁여배우	-10.796
▁여돌	-10.7961
▁안심	-10.7961
▁이상하다	-10.7963
거리고	-10.7964
▁존맛탱	-10.7964
▁나은	-10.7968
▁심하게	-10.7969
▁버튼	-10.7969
▁백만	-10.7973
동물	-10.7973
▁극혐	-10.7974
▁많을	-10.7974
bo	-10.7975
▁내인생	-10.7976
▁좋겠	-10.7976
잌	-10.7977
▁직장인	-10.7977
▁인권	-10.7978
▁지나가는	-10.7979
▁크리스	-10.7981
▁양말	-10.7982
천원	-10.7989
▁사이에서	-10.799
▁도리	-10.7991
▁빚	-10.7991
▁리더	-10.7992
쿠리	-10.7993
▁낯	-10.7993
▁노래도	-10.7994
▁간단하게	-10.7998
▁팬이	-10.7999
▁초코맛	-10.8
▁올라왔	-10.8003
▁해주고	-10.8003
화장품	-10.8006
마트	-10.8007
▁국회의원	-10.801
사이즈	-10.8011
보려고	-10.8014
▁조절	-10.8017
▁내꺼	-10.8018
▁아프고	-10.8022
번째	-10.8023
는건지	-10.8024
▁기적	-10.8025
▁던져	-10.8025
▁좁	-10.8027
▁흑발	-10.803
▁경기도	-10.803
볼게요	-10.803
가방	-10.803
▁바쁘	-10.8032
보고싶	-10.8034
▁놈이	-10.8038
▁업뎃	-10.8038
숭	-10.8038
▁보시	-10.804
냐구	-10.8042
▁보일	-10.8042
▁맴	-10.8047
▁해봐	-10.8048
▁mo	-10.8049
▁왜이래	-10.8049
연습	-10.8049
▁예배	-10.805
하겠다	-10.8051
첼	-10.8055
▁사장	-10.8055
효과	-10.8058
▁사람한테	-10.8059
현실	-10.8061
▁빡쳐	-10.8062
▁컸	-10.8062
▁얼굴로	-10.8062
생기	-10.8063
▁수상	-10.8068
▁친구들이랑	-10.8068
스를	-10.8069
▁편이라	-10.807
▁다른거	-10.8071
▁그정도	-10.8072
▁제외	-10.8073
으로서	-10.8073
▁같다는	-10.8074
앗다	-10.8076
뇽	-10.8077
잡아	-10.8078
볶음밥	-10.8078
을까요	-10.808
신이	-10.8081
▁무지개	-10.8081
열심히	-10.8082
▁어렸을때	-10.8082
브라	-10.8083
▁유일하게	-10.8085
▁호러	-10.8087
▁구원	-10.8087
▁영화중	-10.8087
인증	-10.8088
댔	-10.8088
▁하늘이	-10.809
▁만에	-10.809
랬는데	-10.8092
▁맘이	-10.8092
▁그러게요	-10.8093
▁사랑은	-10.8093
시죠	-10.8093
구경	-10.8094
▁뜨는	-10.8094
고있는	-10.8096
후에	-10.8098
▁뜻이	-10.8099
▁예의	-10.8102
뇌	-10.8102
▁물리	-10.8103
이었나	-10.8103
▁시험기간	-10.8105
▁조커	-10.8109
▁하겠습니다	-10.8111
▁번은	-10.8111
▁티라미수	-10.8112
시가	-10.8112
▁밀린	-10.8115
▁서서	-10.8116
▁좋으	-10.8116
▁갔던	-10.8116
▁언니들	-10.8117
▁기회가	-10.8117
▁사회적	-10.8118
씹	-10.8121
▁크다	-10.8122
▁고맙습니다	-10.8123
▁갈등	-10.8126
▁과거의	-10.8127
▁되어있	-10.8129
다는게	-10.8129
▁내일부터	-10.8131
▁쟌	-10.8131
이번	-10.8132
▁봣는데	-10.8133
▁타는	-10.8134
▁오프닝	-10.8138
덕질	-10.8139
▁공략	-10.8139
기까지	-10.8139
▁감정이	-10.8145
▁마사지	-10.8145
▁남았다	-10.8145
▁넣는	-10.8146
▁웃기네	-10.8152
그랬	-10.8154
▁속상	-10.8156
냇	-10.8158
었더니	-10.8158
▁했었	-10.8159
보게	-10.816
▁낭만	-10.8161
▁계약	-10.8166
야말로	-10.8166
▁안오	-10.8166
하다니	-10.8167
▁독특한	-10.8169
▁대학로	-10.8169
뜸	-10.8169
부족	-10.8172
▁망치	-10.8173
▁오만	-10.8173
▁생각해서	-10.8174
십시오	-10.8174
▁어른들	-10.8177
▁누구야	-10.8177
ake	-10.8181
에다가	-10.8181
챙겨	-10.8183
안하고	-10.8186
만들기	-10.8188
▁있으	-10.8188
▁할수	-10.819
▁내면	-10.8191
▁강화	-10.8192
그려	-10.8192
여기	-10.8194
▁봤더니	-10.8195
▁대형	-10.8196
▁무언가	-10.8206
▁중고	-10.8207
man	-10.8211
▁봐요	-10.8211
▁있는데요	-10.8217
▁직원	-10.8218
▁받아들이	-10.8219
▁사람과	-10.822
닿	-10.8221
▁탄핵	-10.8222
플러스	-10.8223
▁영화인데	-10.8224
ard	-10.8225
치면	-10.8225
▁자세히	-10.8228
불고기	-10.8229
▁은혜	-10.8231
방울	-10.8232
나바	-10.8233
넣고	-10.8234
▁박일	-10.8235
졌는데	-10.8236
것두	-10.8238
▁보는게	-10.8241
▁찐한	-10.8242
ᅲᅮᅮ	-10.8243
▁미워	-10.8245
▁썬	-10.8247
▁남캐	-10.8247
▁년째	-10.8247
▁납득	-10.8248
▁사업	-10.8249
데일리	-10.8249
부턴	-10.8252
▁알페스	-10.8253
▁그리구	-10.8254
os	-10.8254
▁일본에서	-10.8256
▁짭짤	-10.8257
▁원작을	-10.826
▁착용	-10.8261
트레이닝	-10.8262
▁따라가	-10.8263
▁이야	-10.8264
▁취업	-10.8264
▁입구	-10.8266
구여	-10.8266
▁남자는	-10.8267
▁한창	-10.8269
▁없냐	-10.8269
▁괴물	-10.827
▁분만에	-10.8272
배우들	-10.8274
와요	-10.8274
지니	-10.8275
▁둘이서	-10.8276
▁선생님이	-10.8279
▁재미없는	-10.8279
흔	-10.8281
이기	-10.8282
▁믿음	-10.8282
▁미스터	-10.8283
▁플텍	-10.8283
▁발매	-10.8283
▁오랫만에	-10.8283
▁미안하다	-10.8284
▁영향을	-10.8285
▁사운드	-10.8285
표현	-10.8287
▁꿈이	-10.8287
▁케익	-10.8288
시킬	-10.8291
▁마스크	-10.8293
▁빗	-10.8296
에게는	-10.8297
것보다	-10.8298
▁냄새가	-10.8299
▁떨어진	-10.8299
▁촉	-10.83
▁다른데	-10.8301
▁흥분	-10.8301
날이	-10.8302
하고싶	-10.8304
▁포즈	-10.8306
천사	-10.8306
▁그랬다	-10.8307
▁그러게	-10.8308
▁마련	-10.8308
에서의	-10.8309
첩	-10.831
질이	-10.8312
▁점심은	-10.8313
▁박수	-10.8313
▁배신	-10.8314
자체	-10.8314
▁애기들	-10.8314
▁키링	-10.8315
▁몰라요	-10.8315
▁쓰레기영화	-10.8316
뱅	-10.8317
뭔가	-10.8323
▁어이	-10.8323
▁겁니다	-10.8324
▁같어	-10.8325
로워	-10.8325
았어	-10.8327
고민	-10.8327
테이블	-10.8327
완료	-10.8329
▁예뻐요	-10.8331
▁초록	-10.8331
▁예쁨	-10.8332
딕	-10.8334
카이	-10.8335
▁많지	-10.8336
▁페미	-10.8341
오래	-10.8341
▁없는거	-10.8341
▁깔끔	-10.8346
함에	-10.8347
▁보는거	-10.8348
겟어요	-10.8348
닠	-10.835
앨	-10.835
▁신나는	-10.8351
심이	-10.8354
▁못하게	-10.8354
특히	-10.8355
▁힘드	-10.8358
▁뻥	-10.8359
가기	-10.8359
▁실화냐	-10.8359
▁번도	-10.836
▁브이	-10.836
▁마르	-10.8361
▁평균	-10.8362
▁고쳐	-10.8362
▁맞음	-10.8362
▁감동도	-10.8362
▁자르	-10.8364
▁매력이	-10.8366
▁편은	-10.8368
▁주방	-10.8369
▁영어로	-10.8371
때가	-10.8372
▁분석	-10.8372
▁개나	-10.8373
▁한국의	-10.8374
그린	-10.8375
▁노인	-10.8379
찡	-10.8379
▁날씨에	-10.838
▁제공	-10.838
매트	-10.8382
▁찾았다	-10.8383
▁피드	-10.8384
▁영화제	-10.8384
▁우승	-10.8385
▁들어도	-10.8386
▁방법이	-10.8387
▁내부	-10.8394
무대	-10.8394
▁즐	-10.8394
▁강남역	-10.8395
▁아이유	-10.8395
▁그것은	-10.8395
아니면	-10.8398
▁몇몇	-10.8398
생이	-10.84
래서	-10.84
▁싸우는	-10.8402
정보	-10.8403
▁잘한다	-10.8405
▁마찬가지	-10.8405
▁쌉	-10.8406
▁어떠	-10.8409
▁매년	-10.8412
먹는다	-10.8414
펠	-10.8416
▁니들	-10.8417
▁일년	-10.8421
▁슬프	-10.8422
드려요	-10.8423
ver	-10.8428
▁곱	-10.8429
▁환자	-10.8432
▁한끼	-10.8432
▁글구	-10.8437
▁세일	-10.8439
라니까	-10.8442
▁cat	-10.8443
블리	-10.8444
▁넓	-10.8446
▁한계	-10.8448
졍	-10.8448
▁맛있음	-10.8448
▁주소	-10.8448
coffee	-10.845
▁걱정이	-10.8451
▁이름도	-10.8453
▁먹엇	-10.8455
개봉	-10.8462
▁게임을	-10.8463
▁모르겠네	-10.8464
gu	-10.8464
▁휴대폰	-10.8465
제작	-10.8466
▁de	-10.8468
나봄	-10.8468
였네	-10.8468
▁전형적인	-10.8469
▁고딩	-10.847
▁비슷하	-10.847
▁통화	-10.8474
▁왠	-10.8475
바닥	-10.8478
가득	-10.8479
가튼	-10.8479
▁힙합	-10.8482
▁장점	-10.8483
ive	-10.8483
▁부러워	-10.8485
▁교복	-10.8485
뭉	-10.8487
▁밀크	-10.8488
추가	-10.849
▁시간도	-10.8493
▁꿈에	-10.8493
▁조직	-10.8493
▁방콕	-10.8493
피스	-10.8494
▁이번에도	-10.8495
했을때	-10.8496
▁전문가	-10.8498
치가	-10.8502
▁보다는	-10.8504
▁기여	-10.8504
레드	-10.8506
▁좋아하지	-10.8509
▁매력적인	-10.851
▁보았다	-10.8513
▁그래야	-10.8513
▁모래	-10.8515
▁몰랐다	-10.8515
▁읽었	-10.8518
▁이후에	-10.852
▁경계	-10.8521
▁보스	-10.8521
▁예수	-10.8527
▁귀걸이	-10.8529
▁춥다	-10.8531
시민	-10.8531
▁가보고	-10.8532
스토	-10.8537
개웃겨	-10.8541
▁용돈	-10.8542
하는중	-10.8542
▁싶네	-10.8542
▁최종	-10.8543
▁등급	-10.8543
▁초등학생	-10.8545
져요	-10.8547
▁줄거리	-10.8549
기사	-10.8551
▁더더욱	-10.8554
잘못	-10.8556
▁터졌	-10.856
▁수록	-10.856
▁짜장면	-10.856
▁그리워	-10.8562
▁각종	-10.8563
▁의원	-10.8563
▁귀엽지	-10.8564
어제	-10.8566
▁사상	-10.8567
▁배웠	-10.8573
▁대학교	-10.8574
ji	-10.8575
▁성룡	-10.8576
▁돈주고	-10.8577
있나	-10.8579
▁끓	-10.858
▁조건	-10.8581
▁귀여우	-10.8583
핑크	-10.8583
▁주면	-10.8583
▁끝내고	-10.8584
댄스	-10.8584
▁미치겠다	-10.8585
▁브라운	-10.8585
▁오우	-10.8586
▁안남	-10.8589
▁퀸	-10.8595
엇어요	-10.8596
▁퀄리티	-10.8598
▁태극기	-10.8598
▁아줌마	-10.8599
▁물어	-10.8601
▁떠오르	-10.8601
춰	-10.8602
믹	-10.8602
▁년동안	-10.8604
젓	-10.8605
곳이	-10.8605
▁품절	-10.8609
붓	-10.8612
듣는	-10.8613
▁엿	-10.8613
피아	-10.8615
▁인절미	-10.8616
▁고작	-10.8617
영화제	-10.862
▁쿠션	-10.8621
▁각각	-10.8623
▁백인	-10.8625
믿	-10.8627
▁쯤	-10.8627
▁페이	-10.8627
▁소름	-10.8628
넣어	-10.8629
▁시청률	-10.8631
▁스노우	-10.8632
▁동아리	-10.8635
▁남기	-10.8636
▁방해	-10.8637
▁옆으로	-10.8637
▁추천합니다	-10.8639
▁머지	-10.864
이뻐	-10.864
토끼	-10.8641
▁호박	-10.8644
뚝	-10.8645
한것	-10.8647
▁불어	-10.8647
▁공룡	-10.8648
청소	-10.8649
▁좋은거	-10.865
▁아까워	-10.8653
밋	-10.8655
▁매주	-10.8656
▁샴푸	-10.8659
▁찢어	-10.8659
▁같긴	-10.8661
사과	-10.8662
▁하라고	-10.8662
라이브	-10.8662
▁골드	-10.8665
▁금발	-10.8666
제로	-10.8666
▁출장	-10.8667
둬	-10.867
▁신난	-10.8671
▁입양	-10.8675
▁이웃	-10.8675
ct	-10.8676
▁하고싶	-10.8677
▁날은	-10.8678
▁더럽게	-10.8678
▁불한당	-10.8679
▁보여줘	-10.868
▁올만에	-10.8681
▁찾을	-10.8683
▁찍어서	-10.8683
▁z	-10.8685
▁생각하는데	-10.8689
▁훠궈	-10.8692
▁배고파서	-10.8693
▁영화라	-10.8696
▁스키	-10.8699
▁우리동네	-10.8699
▁선생	-10.8701
▁연인	-10.8703
일때	-10.8706
▁창작	-10.8708
▁생각했다	-10.8709
그룹	-10.8709
▁몬스터	-10.8712
졌어요	-10.8713
새벽	-10.8713
▁봐주세요	-10.8714
학기	-10.8716
슬리	-10.8716
▁입어	-10.8717
▁배워	-10.8719
▁인생은	-10.872
▁부른	-10.8722
▁아트	-10.8722
▁루트	-10.8722
▁낚시	-10.8724
더워	-10.8725
▁만드	-10.8725
▁패스	-10.8727
▁숭	-10.8728
▁피부에	-10.873
▁고마	-10.8731
▁직전	-10.8733
▁저리	-10.8736
▁이라	-10.8736
▁제노	-10.8736
▁불행	-10.8738
▁아동	-10.8739
돔	-10.8739
๑	-10.8739
▁여러모로	-10.8742
▁살아있	-10.8742
낀	-10.8742
했었	-10.875
▁할말	-10.875
유리	-10.8752
▁그러다	-10.8755
방법	-10.8756
▁없어도	-10.8757
▁모르겠네요	-10.8757
ᄏᄏᄏᄏᄏᄏᄏᄏᄏᄏᄏᄏᄏᄏᄏ아	-10.8757
역에서	-10.8758
▁사라진	-10.876
▁과외	-10.8761
▁귀여	-10.8762
▁빠질	-10.8762
▁누구보다	-10.8765
▁개소리	-10.8767
기능	-10.8769
▁전설	-10.8769
성공	-10.877
▁신작	-10.877
▁금지	-10.877
▁빼면	-10.8772
▁지나면	-10.8774
nd	-10.8775
▁얹	-10.8776
가봐	-10.8778
▁바깥	-10.8778
아프	-10.8779
▁비추	-10.878
인척	-10.8783
▁컨디션	-10.8783
▁확정	-10.8784
▁사료	-10.8784
▁먹다가	-10.8786
ak	-10.8787
▁노예	-10.8788
멋	-10.879
▁적당한	-10.879
▁travel	-10.879
▁할지	-10.879
내기	-10.879
▁사전	-10.879
▁요구	-10.879
▁사람이라	-10.8794
▁압	-10.8795
페스티벌	-10.8795
지않았	-10.8798
예정	-10.8803
▁ᅲᅲᅲᅲᅲᅲᅲᅲᅲ	-10.8803
▁딥	-10.8805
맞고	-10.8805
할수있	-10.8806
된거	-10.8808
▁구합니다	-10.8809
▁표지	-10.881
▁소소한	-10.8812
▁올려주	-10.8815
▁모집	-10.8815
사건	-10.8815
▁그럼에도	-10.8821
▁배우님	-10.8821
▁관심을	-10.8825
▁대장	-10.8826
▁나왔으면	-10.8831
▁깔끔하게	-10.8832
설정	-10.8834
국민	-10.8838
▁윗	-10.884
ki	-10.884
하는것도	-10.884
▁한대	-10.8841
▁마이클	-10.8842
▁랜덤	-10.8842
거니	-10.8842
▁키보드	-10.8844
▁에스	-10.8849
돋	-10.885
▁편안	-10.8853
▁있을지	-10.8853
▁장사	-10.8856
구역	-10.8861
▁생기는	-10.8861
▁헬스	-10.8864
▁버리	-10.8865
▁먹을거	-10.8866
▁팝	-10.8866
▁호모	-10.8869
▁증거	-10.887
▁생겻	-10.887
검사	-10.887
▁정병	-10.8872
▁집단	-10.8873
윙	-10.8875
▁무화과	-10.8876
▁재미없음	-10.8877
▁맞을	-10.8877
할것	-10.8878
힝	-10.8878
카메라	-10.8879
레인	-10.8884
▁Q	-10.8884
▁잡지	-10.8885
ent	-10.8885
댄다	-10.8886
고있음	-10.8886
▁나니	-10.8888
으려	-10.8889
피곤	-10.889
▁가격이	-10.889
▁닮	-10.8891
▁당일	-10.8893
▁쓰는데	-10.8896
▁불가	-10.8896
▁불편한	-10.8897
▁주워	-10.8899
프라이	-10.8899
사님	-10.8899
▁아빠랑	-10.89
잇어요	-10.8902
즌	-10.8904
▁스케일	-10.8906
▁보이고	-10.8908
▁위에서	-10.8909
▁무서웠	-10.8909
대구	-10.8909
▁다시봐도	-10.891
▁그땐	-10.8911
▁중국어	-10.8915
▁짧게	-10.8916
▁먹먹	-10.8918
랙	-10.8918
▁잘생겼다	-10.8921
잇어서	-10.8921
▁펑펑	-10.8922
더만	-10.8924
▁instasize	-10.8924
▁얹어	-10.8925
▁영상을	-10.8928
▁밟	-10.8928
리얼	-10.8929
▁욕을	-10.893
식단	-10.8936
▁웨이팅	-10.8943
선생	-10.8945
hi	-10.8945
▁기억나	-10.8946
▁참고로	-10.8953
▁민주	-10.8955
▁변신	-10.8957
▁문의	-10.8958
▁혹시나	-10.8959
즁	-10.8961
▁얌	-10.8961
▁장비	-10.8962
▁왓챠	-10.8962
▁쟈	-10.8963
화를	-10.8965
▁헬스장	-10.8969
주지	-10.8969
리에	-10.897
▁깜빡	-10.8971
▁자리를	-10.8975
▁전편	-10.8975
▁원호	-10.8975
ve	-10.8976
▁빛나는	-10.8978
▁야외	-10.8979
▁놀리	-10.8981
식빵	-10.8982
▁나이트	-10.8984
맛있	-10.8986
▁생존	-10.8987
▁꾸덕	-10.8987
▁로그인	-10.8989
▁좌석	-10.899
ut	-10.8992
▁거랑	-10.8993
▁추워서	-10.8995
▁냉동	-10.8997
굽	-10.8999
▁신뢰	-10.9001
▁쿠폰	-10.9003
▁트리	-10.9004
▁돈으로	-10.9005
▁들여	-10.9008
애가	-10.9008
거래	-10.9016
점은	-10.9016
▁개발	-10.9016
시원	-10.9016
자신	-10.9017
▁오백	-10.9017
랄라	-10.9017
▁님들아	-10.9018
ON	-10.902
▁빡치	-10.9023
▁죽어도	-10.9023
▁참으로	-10.9023
판에	-10.9024
▁대단하	-10.9026
▁팝콘	-10.9026
▁김지영	-10.9027
네용	-10.9028
메이트	-10.9031
▁올라오는	-10.9031
중에서	-10.9033
▁후식	-10.9033
▁떠오르는	-10.9034
준이	-10.9036
▁당사자	-10.9036
시러	-10.9037
▁구라	-10.9038
▁입시	-10.9038
▁생각했	-10.9039
▁지어	-10.904
▁있길래	-10.9041
▁생기면	-10.9042
▁챙겨먹	-10.9042
▁열린	-10.9043
▁바른	-10.9043
옵니다	-10.9043
▁희희	-10.9043
핵	-10.9046
▁찰	-10.9047
▁걸려	-10.9048
만드는	-10.9048
▁풀리	-10.9049
▁부리	-10.9051
▁다룬	-10.9051
브레드	-10.9053
▁마녀	-10.9054
▁하루가	-10.9054
녁	-10.9055
▁붙어	-10.9058
▁해시	-10.906
▁백현	-10.9062
▁이탈리아	-10.9063
왓는데	-10.9064
이신	-10.9066
▁실감	-10.9067
대가	-10.9068
스의	-10.9068
었을	-10.9069
걸리	-10.907
두부	-10.907
▁묻어	-10.9071
▁자한당	-10.9073
▁젠더	-10.9076
퐁	-10.9077
▁오늘따라	-10.9079
▁연대	-10.908
주라	-10.908
▁배려	-10.9081
▁ᄋᄏ	-10.9085
굳	-10.9085
퀸	-10.9085
포트	-10.9085
▁봤을	-10.9087
거려	-10.9087
▁싫은데	-10.9088
어스	-10.9088
▁남이	-10.9088
▁하루를	-10.9089
베르	-10.9091
▁수영장	-10.9092
많아	-10.9094
▁찍어주	-10.9094
▁년간	-10.9094
▁최소한	-10.9097
▁할게	-10.9097
▁코트	-10.9099
그레이	-10.9102
▁커피를	-10.9104
예술	-10.9106
스는	-10.911
로드	-10.911
▁쉽	-10.9111
▁다시는	-10.9112
▁사탕	-10.9112
▁신곡	-10.9113
펄	-10.9114
▁부러	-10.9114
▁부분은	-10.9115
▁뜰	-10.9115
▁사라	-10.9117
▁선풍기	-10.912
대전	-10.9121
잊	-10.9122
만해도	-10.9125
▁국회	-10.9125
ice	-10.9126
돌려	-10.9127
op	-10.913
웃기다	-10.9131
▁무겁	-10.9132
▁신나서	-10.9133
▁보여준	-10.9135
▁바꾼	-10.9136
▁해가	-10.9136
▁혁명	-10.9136
▁학점	-10.9137
▁마음은	-10.914
▁협	-10.9144
▁지식	-10.9144
▁떠서	-10.9145
라이프	-10.9146
린이	-10.9147
해수욕장	-10.9148
▁아이를	-10.9148
▁볼까	-10.915
▁좋구	-10.915
ᴗ	-10.9152
▁몸매	-10.9154
이에여	-10.9154
▁박사	-10.9155
▁새롭게	-10.9159
▁오이	-10.916
▁애인이	-10.9161
▁쉬어	-10.9163
대학	-10.9163
▁저분	-10.9166
싀	-10.9167
▁고래	-10.9168
줄은	-10.917
▁자신감	-10.917
▁영상이	-10.917
▁닭발	-10.9173
웃기	-10.9173
고있다	-10.9175
▁샹	-10.9176
▁죽이고	-10.9177
▁상태가	-10.9177
▁가라	-10.9177
사람은	-10.918
거랑	-10.9181
채로	-10.9183
계획	-10.9185
▁얼그레이	-10.9186
▁노을	-10.9186
▁일어날	-10.9188
합니당	-10.9188
▁있겠지만	-10.9188
▁찬양	-10.9188
▁바빠서	-10.9194
음료	-10.9195
빠진	-10.9195
▁멈춰	-10.9195
▁화내	-10.9196
▁이라는	-10.9196
▁묘하게	-10.9197
▁멘트	-10.9198
ts	-10.9198
▁맑은	-10.9199
▁ᄂᄂ	-10.9199
▁여기까지	-10.92
거니까	-10.9201
▁카페인	-10.9201
▁낭비	-10.9202
▁보던	-10.9203
▁때리	-10.9203
▁존잘	-10.9207
ab	-10.9208
▁그러니	-10.9209
하시길	-10.9213
▁아름다움	-10.9214
▁조져	-10.9215
▁여왕	-10.9216
▁보라색	-10.9219
▁시킨	-10.922
▁않는데	-10.922
▁생각하지	-10.9222
▁스파이	-10.9224
▁가오	-10.9226
중이	-10.9227
▁못본	-10.9235
참치	-10.9235
▁순대	-10.9237
▁상황에서	-10.9237
▁카카오	-10.9239
▁오시	-10.9242
▁내일도	-10.9245
▁감사합니당	-10.9246
▁적당	-10.9246
퇴근	-10.9246
와의	-10.925
▁혈	-10.925
▁필요없	-10.9251
겅	-10.9252
▁뿐이다	-10.9254
하심	-10.9255
끊	-10.9255
▁아무런	-10.9258
▁기초	-10.926
▁먹여	-10.9261
룽	-10.9262
▁인생에	-10.9262
▁짱나	-10.9262
▁아티스트	-10.9265
하고싶어	-10.9265
▁베이컨	-10.9266
▁갤	-10.9267
귤	-10.9267
하나요	-10.9267
▁사랑하고	-10.9268
▁따라서	-10.9271
▁기상	-10.9271
잤	-10.9271
신청	-10.9272
▁느낌이라	-10.9272
▁페어	-10.9272
했네요	-10.9274
▁통장	-10.9274
▁이쁘고	-10.9275
시트	-10.9276
▁들어갔	-10.9276
애기	-10.9277
인데도	-10.9278
▁사다	-10.928
▁어제부터	-10.9281
▁호기심	-10.9281
▁재밌을	-10.9283
▁돌아와	-10.9287
정도는	-10.9287
▁나왔던	-10.9288
▁이영	-10.9288
▁있었어	-10.9288
▁단독	-10.9289
▁다이소	-10.929
▁부드러운	-10.929
▁보상	-10.9291
닭발	-10.9291
▁더러운	-10.9291
블랙	-10.9291
인가봐	-10.9292
는뎅	-10.9293
▁웃을	-10.9294
▁팬덤	-10.9294
▁주제에	-10.9296
놧	-10.93
▁팬들이	-10.9303
▁남녀	-10.9305
▁괴롭	-10.9306
해변	-10.9307
▁재밌네요	-10.9307
자연	-10.9307
▁날개	-10.9309
▁겹	-10.9309
▁들어왔	-10.931
▁양이	-10.9311
▁쌓아	-10.9312
▁필요해	-10.9315
선수	-10.9315
▁당신을	-10.9315
▁올렸	-10.9316
선배	-10.9317
▁시간표	-10.9317
▁암것도	-10.9317
▁레스토랑	-10.9319
▁탄탄	-10.9319
▁요청	-10.9319
해줌	-10.932
▁장면은	-10.9321
으로써	-10.9322
▁걸어가	-10.9322
▁보았	-10.9322
▁고양이가	-10.9323
바나나	-10.9324
불러	-10.9327
▁Ch	-10.9327
한텐	-10.9328
▁거절	-10.9329
▁오세요	-10.933
▁탕	-10.9331
▁휴식	-10.9332
▁둥	-10.9333
▁모찌	-10.9333
IN	-10.9334
리오	-10.9334
장소	-10.9338
▁스파이더맨	-10.9338
der	-10.9338
▁싸구려	-10.9339
켰	-10.9339
▁넘겨	-10.934
▁보이는데	-10.9341
▁good	-10.9344
▁그것을	-10.9346
▁학교가	-10.9349
▁뻐	-10.935
▁서울에서	-10.935
겠습니까	-10.9351
▁꽁	-10.9351
▁불편하	-10.9355
▁욕먹	-10.9355
▁즐거움	-10.9357
▁쓰던	-10.9361
로써	-10.9362
안녕	-10.9362
▁소름돋	-10.9364
▁동료	-10.9368
▁돈도	-10.9371
ᄌᄂ	-10.9371
▁insta	-10.9378
▁장기	-10.938
▁높이	-10.9381
▁비트	-10.9381
씻	-10.9383
▁영향	-10.9386
▁자면	-10.9389
▁한우	-10.939
▁많아요	-10.939
빗	-10.9393
▁라미	-10.9394
클래스	-10.9395
▁어느날	-10.9398
▁교사	-10.9399
▁꽂	-10.9402
▁느낌의	-10.9403
▁하나같이	-10.9404
▁메시지	-10.9404
▁깎	-10.9405
▁붉은	-10.9406
블루	-10.9408
▁배우는	-10.9408
▁후쿠오카	-10.9408
과학	-10.9409
▁지났	-10.941
▁움직이는	-10.941
▁세번째	-10.9411
▁즉	-10.9413
▁님은	-10.9413
웡	-10.9415
▁가짜	-10.9417
▁고마운	-10.9418
▁바꾸고	-10.942
덥	-10.9421
▁미스	-10.9422
ore	-10.9423
톨	-10.9423
▁고민이	-10.9424
▁촛불	-10.9425
▁탈주	-10.9426
▁들어야	-10.9429
▁아재	-10.943
▁태연	-10.9431
▁심각	-10.9432
대를	-10.9433
▁감동적	-10.9434
▁맺	-10.9435
▁흑임자	-10.9436
▁먹고싶은	-10.9436
부러	-10.9439
▁알고보니	-10.944
찮	-10.9441
▁정신없	-10.9442
페어	-10.9443
▁이사람	-10.9443
고있	-10.9447
▁크라	-10.9451
▁터져	-10.9455
▁과장	-10.946
▁멈추	-10.946
▁보내주	-10.9461
▁아쉬움	-10.9462
▁막걸리	-10.9462
마스	-10.9464
▁이야기는	-10.9464
▁모리	-10.9464
▁상징	-10.9466
▁배우고	-10.9467
▁시작했다	-10.9467
먹스타	-10.9468
▁자극적	-10.9471
▁강조	-10.9471
▁모아서	-10.9472
▁들었던	-10.9473
all	-10.9475
▁구리	-10.9475
▁불륜	-10.9476
조절	-10.9477
▁운동을	-10.9477
▁지니	-10.9477
랄까	-10.9477
라는게	-10.9478
▁이어지는	-10.9481
▁이른	-10.9482
▁플로	-10.9482
▁내놓	-10.9485
▁타르트	-10.9485
▁get	-10.9486
▁위대한	-10.9486
▁정서	-10.949
▁뜨고	-10.949
▁소문	-10.9493
▁파악	-10.9494
▁신선한	-10.9495
▁발로	-10.9497
모르	-10.9498
▁꽃이	-10.95
▁끼워	-10.95
▁일기	-10.9501
▁다니고	-10.9501
▁밥도	-10.9502
▁돌았	-10.9503
▁엮	-10.9503
bu	-10.9507
연출	-10.9507
과정	-10.9507
▁개꿀	-10.9508
▁파주	-10.9508
▁붙이	-10.9509
저거	-10.9512
탔	-10.9512
켄	-10.9512
▁재미있었	-10.9514
스쿨	-10.9514
갈래	-10.9517
▁이런건	-10.9518
▁코메디	-10.952
간의	-10.9521
▁밝은	-10.9521
먄	-10.9522
▁사진도	-10.9524
▁외식	-10.9526
사람들이	-10.9529
▁못하겠	-10.9531
▁흥미진진	-10.9532
▁따위	-10.9532
▁정체성	-10.9533
▁생각없이	-10.9533
▁붙어있	-10.9535
▁소속사	-10.9537
묻	-10.9537
▁실내	-10.9537
하실분	-10.9537
▁훌륭	-10.9538
▁말만	-10.954
▁심심	-10.9541
▁아휴	-10.9545
▁돌아다니	-10.9547
▁영화임	-10.9548
▁그렇다면	-10.9548
▁말하기	-10.9551
욬ᄏᄏᄏᄏ	-10.9551
잇엇	-10.9552
겼	-10.9552
▁환영	-10.9553
▁무엇이	-10.9554
방에서	-10.9554
▁달라고	-10.9554
ᅲᅲᅲᅲᅲᅲᅲᅲᅲᅲᅲ	-10.9556
▁허허	-10.9559
으라고	-10.9559
の	-10.9561
▁귀찮다	-10.9563
▁스팀	-10.9564
▁으앙	-10.9565
▁양꼬치	-10.9566
자꾸	-10.9568
▁문제를	-10.9568
졸려	-10.9569
▁신체	-10.957
얍	-10.9571
▁가져다	-10.9573
▁그림체	-10.9573
▁기억해	-10.9573
▁연출이	-10.9576
▁일하고	-10.9577
▁불닭	-10.9579
하든	-10.9579
아닌데	-10.9581
▁안되는데	-10.9583
무리	-10.9583
▁쩐다	-10.9585
▁멋져	-10.9586
부를	-10.9588
▁가해자	-10.9588
▁찝찝	-10.9591
▁옮기	-10.9591
▁점에서	-10.9592
일리	-10.9595
▁땜에	-10.9597
▁쩌	-10.9598
▁탕수육	-10.9599
▁서버	-10.9599
▁신비	-10.96
▁엊그제	-10.9601
▁스윗	-10.9601
▁자제	-10.9602
가는길	-10.9603
▁재현	-10.9607
▁신의	-10.9608
▁있잖아	-10.9609
닫	-10.9609
▁안돼요	-10.961
겁	-10.9611
겠냐	-10.9612
▁터질	-10.9613
▁딱딱	-10.9613
▁받아야	-10.9614
▁안좋은	-10.9614
▁날려	-10.9615
먹어야	-10.9615
페이	-10.9615
▁되어야	-10.9616
▁않냐	-10.9616
▁꺼져	-10.9616
▁낳	-10.9617
▁집을	-10.9617
▁올해도	-10.9617
끼고	-10.9617
달리	-10.9617
륜	-10.9618
▁아련	-10.9618
겔	-10.962
▁목이	-10.9622
주시	-10.9623
▁울었다	-10.9627
대사	-10.9627
수영	-10.9628
하셧	-10.9629
▁국밥	-10.9633
빈이	-10.9634
▁놀았	-10.9635
▁연상	-10.9635
텀	-10.9635
느니	-10.9637
▁삶에	-10.9638
▁미화	-10.9639
▁사정	-10.9641
▁시원하게	-10.9642
셨는데	-10.9647
▁중요하	-10.965
▁소세지	-10.9651
공항	-10.9652
▁전복	-10.9652
▁줄은	-10.9652
▁하지마	-10.9653
▁까먹고	-10.9655
▁붐	-10.9656
▁당연	-10.9659
▁죠아	-10.966
kr	-10.966
▁No	-10.9663
BB	-10.9665
▁괴롭히	-10.9667
▁뭐해	-10.9673
▁넵	-10.9676
▁냥이	-10.9677
▁사진찍	-10.9677
▁케이블	-10.9677
▁유난히	-10.968
▁훅	-10.9684
▁건가요	-10.9685
포카	-10.9688
야겟다	-10.9688
판이	-10.969
▁모니터	-10.969
▁짱이다	-10.9691
드가	-10.9691
▁대비	-10.9692
려구	-10.9692
▁밀리	-10.9693
전골	-10.9696
▁치과	-10.9697
▁칵테일	-10.9698
스톤	-10.9699
▁최선을	-10.97
▁험	-10.97
깍	-10.9703
▁구운	-10.9706
▁먹이	-10.9707
주가	-10.9707
일뿐	-10.9707
▁아니었다	-10.9708
▁사자	-10.971
긴하지만	-10.9712
▁탈덕	-10.9713
약간	-10.9715
▁아리	-10.9715
주세여	-10.9715
▁고수	-10.9716
▁어쩌라고	-10.9717
▁가족이	-10.9718
▁이랬	-10.9719
▁피곤해서	-10.972
▁중학교	-10.9721
▁그런게	-10.9722
군데	-10.9723
▁치마	-10.9723
웠던	-10.9725
▁짱이	-10.9727
용품	-10.9728
하겠지	-10.9729
▁바이오	-10.973
▁담긴	-10.9731
▁비슷	-10.9732
▁못먹	-10.9732
박물관	-10.9733
에이드	-10.9733
리라	-10.9734
나잇	-10.9735
티브	-10.9735
▁시간동안	-10.9736
하는것	-10.9738
▁혼란	-10.9739
▁오빠랑	-10.974
▁들어있	-10.974
▁닭갈비	-10.974
▁캣	-10.9741
짜증	-10.9743
봤지만	-10.9743
▁트친이	-10.9745
같애	-10.9745
▁작품을	-10.9745
▁복귀	-10.9747
▁토스트	-10.9748
▁사야지	-10.975
▁패딩	-10.9753
▁한마디로	-10.9754
▁홍차	-10.9757
맛스타그램먹부림먹짤먹방스타그램	-10.9757
된다고	-10.9758
▁빨아	-10.9758
▁하는건	-10.9758
하더니	-10.9761
땀	-10.9763
▁저주	-10.9764
▁그쪽	-10.9764
▁기뻐	-10.9766
▁으어	-10.9768
▁재능	-10.9768
▁이새끼	-10.9769
키즈	-10.9773
볶	-10.9776
뭔	-10.9779
▁자다	-10.9779
졋다	-10.978
▁첫째	-10.978
▁여자는	-10.9781
▁그릴	-10.9781
▁펄	-10.9786
▁먹는거	-10.9788
▁인스타에	-10.9788
▁짜증난다	-10.9792
▁의미를	-10.9792
▁cm	-10.9792
새끼야	-10.9792
타운	-10.9793
▁이슈	-10.9794
▁해체	-10.9794
노트	-10.9795
▁맞았	-10.9797
전주	-10.9798
▁놀라운	-10.9799
▁빠졌	-10.9799
い	-10.98
▁스타워즈	-10.98
▁져	-10.9801
▁사람인데	-10.9801
▁LG	-10.9801
▁싫음	-10.9802
▁동성애	-10.9803
렀	-10.9806
▁감당	-10.9806
▁생각했던	-10.9807
▁멀티	-10.9808
▁지경	-10.9808
좋고	-10.9809
▁야무지게	-10.981
칫	-10.9812
▁엄마아빠	-10.9814
덕에	-10.9815
▁의미로	-10.9818
스레	-10.9818
▁쩔	-10.9818
걸루	-10.9819
▁값	-10.982
▁레오	-10.982
전주맛집	-10.9825
▁담당	-10.9825
놨다	-10.9825
▁아름답다	-10.9826
키스	-10.983
▁호호	-10.983
떄	-10.983
official	-10.983
▁반짝	-10.9831
▁나오기	-10.9832
▁시나몬	-10.9834
전부터	-10.9834
▁힘들게	-10.9836
▁했다가	-10.9838
▁캐해	-10.9839
▁싶다는	-10.9839
▁쳐다보	-10.9841
▁따뜻해	-10.9842
▁부활	-10.9842
wa	-10.9842
님두	-10.9845
▁돌리고	-10.9849
▁살아가	-10.985
쭉	-10.9853
▁순간이	-10.9854
새끼가	-10.9854
갤	-10.9855
▁돈벌	-10.9855
공간	-10.9857
께요	-10.9858
메리	-10.986
▁개좋아	-10.9861
마저도	-10.9861
ate	-10.9862
▁충분	-10.9863
▁위장	-10.9863
비빔밥	-10.9866
▁시민	-10.9867
셨던	-10.9867
브리	-10.9867
▁논란	-10.9869
▁처먹	-10.9871
▁아프지	-10.9871
▁모험	-10.9873
▁넥	-10.9874
▁포기하고	-10.9875
향이	-10.9875
▁생각하니	-10.9876
▁잡혀	-10.9876
▁어두운	-10.9881
▁여태	-10.9881
ant	-10.9882
무시	-10.9884
▁증명	-10.9884
속으로	-10.9884
▁사오	-10.9884
▁멋있다	-10.9885
지랄	-10.9885
▁색이	-10.9886
▁이날	-10.9887
▁찐으로	-10.9888
마루	-10.9888
▁꼰대	-10.989
▁ost	-10.989
▁다큐멘터리	-10.9891
▁현실을	-10.9892
▁억울	-10.9895
▁댕댕이	-10.9896
▁교양	-10.9896
는다고	-10.9899
▁접속	-10.99
▁옳	-10.9901
▁어벤져스	-10.9901
▁숙제	-10.9901
뜰	-10.9906
▁해시태그	-10.9908
점에서	-10.9908
일지	-10.991
▁스탠딩	-10.9911
뿐인	-10.9914
▁쓸데없는	-10.9915
국밥	-10.9916
▁자동차	-10.9917
촉	-10.9919
▁압구정	-10.9921
쾌	-10.9923
ood	-10.9924
▁진짜진짜	-10.9924
▁어둠	-10.9928
같지	-10.9929
▁뭐랄까	-10.9929
▁대본	-10.993
▁시내	-10.9931
▁촌	-10.9932
▁제작진	-10.9932
▁재밋다	-10.9934
남이	-10.9935
▁무비	-10.9935
▁가르	-10.9936
so	-10.9936
▁보험	-10.9938
▁아유	-10.9938
▁재수	-10.9939
▁현상	-10.9941
▁ᄌᄉ	-10.9941
▁그와중에	-10.9942
▁말이지	-10.9942
▁클렌징	-10.9943
▁됐어	-10.9945
커버	-10.9945
군이	-10.9945
▁In	-10.9945
시네	-10.9946
▁종일	-10.9947
▁이혼	-10.9947
쟌	-10.9948
ea	-10.9949
▁일어나는	-10.9949
▁인류	-10.995
▁동생이랑	-10.9951
챔	-10.9952
▁끝났다	-10.9952
뉴스	-10.9953
▁To	-10.9956
쟁	-10.9956
▁작가가	-10.9957
오름	-10.9958
▁치는	-10.9958
▁사진으로	-10.9958
되는거	-10.9959
▁일까지	-10.996
▁박제	-10.9961
주시고	-10.9961
▁찜	-10.9962
▁글쎄	-10.9962
트가	-10.9962
흠	-10.9966
놓으면	-10.9967
놔서	-10.9968
년만에	-10.9969
▁시켰	-10.9969
팸	-10.997
▁귀에	-10.997
▁맞는데	-10.997
▁말까	-10.997
킴	-10.997
쇼핑	-10.9972
할지	-10.9972
▁텍스트	-10.9973
▁견디	-10.9973
▁나라가	-10.9973
▁살려줘	-10.9974
아아악	-10.9975
▁쉐	-10.9977
준다고	-10.9977
▁삶은	-10.998
납니다	-10.9981
▁그림자	-10.9983
통닭	-10.9983
전쟁	-10.9986
▁오져	-10.9987
스파	-10.999
▁재생	-10.9991
요거트	-10.9991
▁영역	-10.9992
이었으면	-10.9992
▁맛없	-10.9993
▁야마	-10.9993
댕이	-10.9993
오니	-10.9994
▁예전엔	-10.9995
고구마	-10.9995
▁놀란	-10.9997
▁프리미엄	-10.9997
마크	-10.9999
▁이별	-11.0002
학년	-11.0006
대학교	-11.0007
ip	-11.0008
▁말아먹	-11.0009
▁치면	-11.0009
▁봤으면	-11.0009
▁내리는	-11.0011
▁세션	-11.0012
▁침대에	-11.0015
▁신이치	-11.0016
au	-11.0016
이었어요	-11.0017
▁물을	-11.0017
주시는	-11.0021
제이	-11.0021
줄알았	-11.0022
▁플라	-11.0023
▁우왕	-11.0025
▁기념으로	-11.0026
▁있었습니다	-11.0031
뭘	-11.0031
▁토르	-11.0034
▁로고	-11.0036
▁시위	-11.0037
▁양치	-11.0037
▁시체	-11.0038
▁인가	-11.004
▁가구	-11.004
육아	-11.0041
▁사람들도	-11.0041
되니까	-11.0042
▁맛있어요	-11.0044
아앙	-11.0044
▁제출	-11.0047
▁세월호	-11.0047
▁기여운	-11.005
▁주체	-11.0051
렘	-11.0054
▁기생충	-11.0054
▁싸이	-11.0055
▁제시	-11.0057
▁받았는데	-11.0057
▁절대로	-11.006
▁앜	-11.0061
물어	-11.0064
였을	-11.0065
▁싫어요	-11.0066
▁닮았	-11.0067
▁클라	-11.0068
▁목사	-11.0068
▁비엘	-11.007
해야겠다	-11.0071
▁배고프	-11.0072
렸어	-11.0075
제주	-11.0077
▁사냥	-11.0077
▁ᄍᄍ	-11.0078
나여	-11.0079
▁현생	-11.0079
▁푸른	-11.0081
▁글로	-11.0083
▁걷기	-11.0083
▁가깝	-11.0085
하시나요	-11.0085
▁외우	-11.0086
오오	-11.0087
▁했지	-11.0087
▁음악이	-11.0087
▁답답	-11.0087
하던데	-11.0091
▁좋았어	-11.0091
one	-11.0092
▁담은	-11.0092
▁작고	-11.0093
▁나오는거	-11.0098
었네요	-11.01
▁의리	-11.0101
멈	-11.0102
▁원본	-11.0104
▁미칠	-11.0104
▁거부	-11.0105
ain	-11.0105
▁넓은	-11.0106
▁짓을	-11.0107
▁스밍	-11.0107
쌤이	-11.0113
▁순수한	-11.0115
▁탔	-11.0115
▁박살	-11.0116
▁거죠	-11.0116
▁쫓아	-11.0117
보네	-11.012
당함	-11.012
the	-11.0121
▁왔어	-11.0121
▁방탄	-11.0122
▁고민하다가	-11.0122
▁맘대로	-11.0125
▁웃음이	-11.0125
분위기	-11.0127
rt	-11.0127
▁th	-11.0127
무비	-11.0131
▁비오는날	-11.0131
▁아무로	-11.0133
▁돈은	-11.0134
콕	-11.0135
맞이	-11.0135
▁유타	-11.0138
▁존경	-11.0139
▁올리브영	-11.014
▁급식	-11.0141
▁다녀왔다	-11.0142
렸던	-11.0142
목소리	-11.0143
▁coffee	-11.0145
썩	-11.0146
해질	-11.0147
▁칼국수	-11.0149
▁좋겟	-11.0149
노잼	-11.015
푼	-11.015
프트	-11.0153
▁ᄀᄀ	-11.0154
랑은	-11.0159
입은	-11.0161
▁필요하	-11.0164
▁엑스	-11.0167
ian	-11.0174
▁번씩	-11.0176
▁뚱	-11.0176
일로	-11.0177
안해	-11.0179
▁살아가는	-11.0184
한대	-11.0185
nt	-11.0186
▁않았지만	-11.0186
글자	-11.0188
긍	-11.0189
▁헤어지	-11.0189
▁엄빠	-11.019
ti	-11.0191
▁많네	-11.0197
▁스피	-11.0198
괄	-11.0199
딱지	-11.0201
▁조작	-11.0204
방이	-11.0204
▁불쾌	-11.0205
노동	-11.0205
필름	-11.0206
▁오레오	-11.0206
▁빡쳐서	-11.0208
▁이영화를	-11.0216
개월	-11.0216
▁이화	-11.022
썬	-11.0221
삶	-11.0221
좋은데	-11.0222
새기	-11.0222
▁안타깝	-11.0224
▁머임	-11.0224
▁자자	-11.0226
▁바꿨	-11.0227
▁받으면	-11.0228
▁어떻	-11.0231
▁쌀쌀	-11.0232
em	-11.0232
드로	-11.0233
▁춘천	-11.0235
셨으면	-11.0236
▁등을	-11.0236
▁결심	-11.0236
ast	-11.0241
▁터지는	-11.0241
▁오랫동안	-11.0242
▁음식을	-11.0244
아라	-11.0244
▁몰려	-11.0245
아리	-11.0245
줫	-11.0247
뿐이	-11.0247
기록	-11.0248
son	-11.0249
▁휴학	-11.0251
▁죄책감	-11.0252
▁늑대	-11.0253
원래	-11.0255
▁올해의	-11.0256
신고	-11.0257
야됨	-11.0258
▁닦	-11.0259
펫	-11.0262
▁밤이	-11.0263
▁도경수	-11.0263
▁어색한	-11.0264
▁아씨발	-11.0264
▁오래오래	-11.0265
TV	-11.0266
▁베리	-11.0266
년이	-11.0269
▁아니니까	-11.0269
옆	-11.027
장난	-11.0271
ff	-11.0271
▁극복	-11.0272
▁썼는데	-11.0273
쿵	-11.0274
거고	-11.0275
▁잊을	-11.0275
▁연장	-11.0275
▁염병	-11.0275
무서워	-11.0276
▁re	-11.0278
욬ᄏᄏᄏ	-11.0278
선이	-11.0279
웨어	-11.028
▁캐릭터들	-11.0281
▁한복	-11.0281
▁여보	-11.0283
▁영화보다	-11.0283
▁명의	-11.0283
▁없게	-11.0283
는사람	-11.0286
age	-11.0288
▁땅콩	-11.0288
나보네	-11.0289
종이	-11.0291
슴다	-11.0296
라멘	-11.0296
▁업로드	-11.0296
ᄍ	-11.0299
▁개빡	-11.03
▁스튜디오	-11.03
▁사진들	-11.03
▁단순히	-11.0301
▁분리	-11.0301
평가	-11.0301
앗는데	-11.0302
▁나가기	-11.0305
제목	-11.0305
▁그녀의	-11.0305
▁넘버	-11.0305
▁가로	-11.0305
▁셔누	-11.0307
타워	-11.0308
▁저질	-11.0308
ᅮᅮᅮᅮᅮᅮ	-11.0308
▁차가	-11.031
고싶어요	-11.0311
▁수사	-11.0311
bi	-11.0313
▁잡은	-11.0315
▁따지	-11.0315
▁받으	-11.0316
토스트	-11.0318
▁조화	-11.0319
▁힝구	-11.032
nn	-11.032
▁안하면	-11.0321
▁기력	-11.0323
▁온도	-11.0324
직한	-11.0326
▁한다면	-11.0328
▁영화보고	-11.0328
▁멋지	-11.0328
▁패턴	-11.0329
▁잇어요	-11.0329
▁생선	-11.0332
보고싶어	-11.0336
▁익명	-11.0337
먹어야지	-11.0337
사라	-11.0338
워터	-11.0339
▁떨어져서	-11.0339
▁짱맛	-11.034
▁피곤하	-11.0341
▁먹을까	-11.0343
▁받음	-11.0343
▁대로	-11.0346
▁흙	-11.0346
량이	-11.0348
▁만지	-11.0348
▁룰	-11.0349
가져	-11.035
▁세훈	-11.0351
연어	-11.0356
▁넣을	-11.0357
지역	-11.0357
▁소유	-11.0358
▁질투	-11.0358
▁tv	-11.0359
▁자취	-11.0359
▁연출력	-11.036
드린	-11.036
▁선생님들	-11.0361
▁앉은	-11.0364
▁드라마를	-11.0366
쯤에	-11.0366
가슴	-11.0367
▁잡을	-11.0367
조심	-11.0368
▁사준	-11.0369
▁백화점	-11.0369
삿	-11.037
▁통해서	-11.0371
▁자리에서	-11.0372
▁어제의	-11.0372
어라	-11.0376
어엉	-11.0382
▁잡히	-11.0383
▁성분	-11.0385
▁언제쯤	-11.0387
먹엇	-11.0389
▁호로록	-11.039
▁욕하는	-11.039
▁악역	-11.0394
▁오기	-11.0395
내리	-11.0395
다고요	-11.0395
망고	-11.0395
▁건강하게	-11.0397
▁가고싶	-11.0398
▁깔끔한	-11.04
테니까	-11.04
부부	-11.04
▁하셔서	-11.0401
▁행위	-11.0402
▁찌질	-11.0402
▁애매한	-11.0402
▁한두	-11.0402
▁워터	-11.0403
▁노답	-11.0404
▁사투리	-11.0407
신분	-11.0407
▁피터	-11.0407
▁여러번	-11.0407
▁사례	-11.041
gv	-11.041
아아아아	-11.041
맨날	-11.041
▁그럭저럭	-11.0411
▁육회	-11.0414
▁외롭	-11.0417
▁듣는데	-11.0417
짓을	-11.042
▁두명	-11.042
▁주목	-11.0421
▁자리가	-11.0421
▁군인	-11.0421
▁jmt	-11.0422
▁토론	-11.0422
▁땡기	-11.0422
▁공계	-11.0423
▁굿모닝	-11.0423
▁계절이	-11.0426
▁no	-11.0427
▁상수	-11.0428
▁형님	-11.043
▁개짱	-11.043
▁입장에서	-11.043
▁상황을	-11.043
▁마디	-11.0432
▁벌써부터	-11.0432
▁멀어	-11.0433
▁해리포터	-11.0433
▁가도	-11.0434
▁와플	-11.0434
▁사장님이	-11.0436
샴푸	-11.0436
것인가	-11.0437
▁순삭	-11.0437
▁사람만	-11.0443
▁sh	-11.0444
▁OST	-11.0444
▁볼수록	-11.0444
해졌다	-11.0448
▁아닌거	-11.0448
▁병신	-11.0448
▁에다가	-11.0449
▁단골	-11.0449
베이비	-11.045
공개	-11.045
OS	-11.0451
바르	-11.0452
편이	-11.0453
어진	-11.0454
틈	-11.0455
았음	-11.0455
▁했나	-11.0456
▁해야할	-11.0457
▁물놀이	-11.0457
왓다	-11.0457
파운드	-11.0458
▁부디	-11.0459
▁섞어	-11.046
▁명품	-11.0461
▁록	-11.0462
진않	-11.0462
단체	-11.0463
▁드세요	-11.0463
▁멍스타그램	-11.0463
길이	-11.0464
▁않으	-11.0467
눌	-11.0468
▁갠적으로	-11.0469
▁입학	-11.0469
같아요	-11.047
▁관객들	-11.047
▁그곳	-11.0471
ci	-11.0473
컾	-11.0474
▁맥도날드	-11.0476
▁사쿠라	-11.0476
▁마인드	-11.0477
▁엽떡	-11.0477
▁꼼	-11.0477
▁빡침	-11.0478
어ᅥ	-11.0479
▁행운	-11.0479
▁결코	-11.048
나랑	-11.048
▁살아있는	-11.0481
▁굴러	-11.0482
▁천만	-11.0483
▁빠져서	-11.0483
▁조언	-11.0484
▁주지	-11.0485
모토	-11.0485
▁Re	-11.0486
▁이러는	-11.0486
▁진화	-11.0486
줘라	-11.0486
까말까	-11.0489
는건데	-11.049
▁갈래	-11.0491
▁벼	-11.0492
▁잎	-11.0492
났는데	-11.0493
▁정신을	-11.0494
▁유자	-11.0495
▁형태	-11.0495
▁외부	-11.0496
▁매달	-11.0496
대한	-11.0497
▁SNS	-11.0498
▁하냐	-11.05
▁칭구들	-11.05
충전	-11.0501
걱	-11.0503
ac	-11.0507
▁어리	-11.0507
흐흑	-11.0507
해봐	-11.0509
▁서양	-11.0512
들어오	-11.0512
▁왕자	-11.0512
▁마구	-11.0516
▁나머지는	-11.0517
▁over	-11.0519
▁팍팍	-11.0521
영화의	-11.0522
▁친구한테	-11.0522
▁김치찌개	-11.0523
▁아닌듯	-11.0524
▁댓	-11.0527
써서	-11.0529
상에	-11.0529
▁훈련	-11.053
▁맛나게	-11.053
되었습니다	-11.0531
하기에	-11.0532
롯	-11.0532
왈	-11.0534
▁신났	-11.0535
▁떠나서	-11.0535
지도않	-11.0535
▁시트	-11.0536
디스	-11.0536
▁입혀	-11.0537
▁아쉬워	-11.0537
▁보석	-11.0537
▁향한	-11.0538
▁향해	-11.054
▁거기다	-11.0542
▁po	-11.0542
▁세워	-11.0542
▁떠들	-11.0543
타는	-11.0544
▁마쿠	-11.0545
시안	-11.0545
▁현금	-11.0549
물고	-11.0549
▁황당	-11.055
▁어째서	-11.0552
야겠어요	-11.0552
속의	-11.0553
▁상대방	-11.0554
▁줬	-11.0556
▁풀고	-11.0556
▁팩트	-11.0556
▁끝날	-11.0557
ll	-11.0558
▁정원	-11.0561
▁Melon	-11.0562
▁좋아합니다	-11.0562
▁눈뜨먹	-11.0563
▁신상과자	-11.0564
해본	-11.0566
오세요	-11.0567
▁나나	-11.0568
▁대박이다	-11.0569
▁사연	-11.0571
▁안된	-11.0572
▁일이야	-11.0572
성애자	-11.0575
▁슴	-11.0575
▁집회	-11.0575
▁개시	-11.0576
▁계신가요	-11.0576
할땐	-11.0578
▁들면	-11.0581
▁저런거	-11.0583
▁하신	-11.0584
▁것인지	-11.0584
▁어울려	-11.0585
▁미쳤어	-11.0585
▁참을	-11.0586
▁웃기지	-11.0588
쫄	-11.059
엿음	-11.059
팥	-11.059
주셨다	-11.0592
마늘	-11.0593
▁고등학생	-11.0595
소식	-11.0596
할때마다	-11.0596
▁반팔	-11.0598
▁끔찍	-11.0598
▁핸	-11.06
▁평점을	-11.0603
▁재미를	-11.0605
▁호주	-11.0606
▁제임스	-11.0607
▁아씨	-11.0607
▁심쿵	-11.0607
▁상상력	-11.0608
▁끓여	-11.0608
▁로마	-11.0608
▁생길	-11.0609
에서만	-11.0609
기준	-11.0612
부터는	-11.0612
▁파괴	-11.0614
▁되서	-11.0617
▁끌려	-11.0617
놈아	-11.0618
씨는	-11.062
▁야한	-11.0621
▁구석	-11.0622
▁릴리	-11.0623
리뷰	-11.0623
▁정당	-11.0624
세이	-11.0624
머야	-11.0628
▁괌	-11.0629
▁해명	-11.063
먹어도	-11.0633
국이	-11.0633
▁쏴	-11.0634
▁비율	-11.0635
▁마지막날	-11.0637
dd	-11.064
최애	-11.0641
▁추억이	-11.0641
그럴	-11.0643
▁완결	-11.0643
오지	-11.0645
▁빨강	-11.0645
쨔	-11.0646
▁백수	-11.0648
▁붙잡고	-11.0649
이스	-11.065
▁함부로	-11.065
▁계기	-11.0651
▁더불어	-11.0651
▁레시피	-11.0651
▁안해도	-11.0653
▁곽	-11.0653
▁우리애	-11.0657
▁존중	-11.0658
▁언제든	-11.0659
미안	-11.0659
▁과목	-11.0659
▁띠용	-11.066
▁말야	-11.0661
▁짜증나는	-11.0661
▁오일	-11.0665
▁뚫고	-11.0665
▁무슨일이	-11.0665
▁다녀왔습니다	-11.0665
▁간절	-11.0667
▁체인	-11.0669
▁외치	-11.0669
▁앙버터	-11.0672
▁월드	-11.0673
▁완성도	-11.0674
▁추리	-11.0676
▁인연	-11.0677
▁헝	-11.0677
▁자서	-11.0678
▁있었어요	-11.0679
▁나는데	-11.068
▁Ma	-11.0681
▁똑바로	-11.0683
▁와이파이	-11.0683
▁땡기는	-11.0684
▁잘했다	-11.0686
맡	-11.0687
zz	-11.0687
조사	-11.0689
▁용산	-11.069
▁재미있어요	-11.069
▁썅	-11.0695
▁그러면서	-11.0695
일어나	-11.0696
을땐	-11.0697
▁럽스타그램	-11.0698
▁교수님이	-11.0698
연애	-11.0698
▁전개가	-11.0699
▁바란다	-11.0699
도착	-11.0699
쇄	-11.07
넥	-11.07
시구	-11.0702
▁분야	-11.0702
▁저래	-11.0702
▁국수	-11.0703
들리	-11.0703
▁불만	-11.0704
볼게	-11.0704
▁나비	-11.0705
▁물고기	-11.0706
▁입는	-11.0707
ᅮᅮᅮᅮᅮᅮᅮ	-11.0709
▁잘생겻	-11.0711
▁거품	-11.0711
▁룸	-11.0712
▁안맞	-11.0714
▁달성	-11.0714
뢰	-11.0716
겠구나	-11.0716
추억	-11.0717
▁교과서	-11.0717
워크	-11.0718
▁단점	-11.072
▁일주일에	-11.072
▁여섯	-11.072
▁유산균	-11.0724
▁없나요	-11.0724
▁전날	-11.0725
▁잡았	-11.0726
▁포스	-11.0727
▁년을	-11.0727
▁ᄅ	-11.0727
▁해야하는	-11.0728
ᅲᅲᅲᅲᅲᅲᅲᅲᅲᅲᅲᅲ	-11.073
소년	-11.0733
▁메모	-11.0733
▁악당	-11.0733
▁놀랍	-11.0734
▁오직	-11.0736
▁엄마의	-11.0737
마라	-11.0739
▁필모	-11.0739
인사	-11.074
▁올리면	-11.0741
▁도움을	-11.0744
샀	-11.0745
▁묻는	-11.0748
▁민트	-11.0749
▁버텨	-11.0749
▁멀리서	-11.075
▁물어봐	-11.0751
스럽고	-11.0752
▁원고	-11.0753
▁나가야	-11.0754
데스	-11.0754
권을	-11.0755
▁할래	-11.0755
▁붕	-11.0757
▁벗어	-11.0758
▁예민	-11.0758
먹었다	-11.0758
▁먹게	-11.0759
▁봤네요	-11.0759
▁안했는데	-11.0762
버렸어	-11.0762
▁세훈이	-11.0765
▁났다	-11.0767
거리면서	-11.0768
▁하나를	-11.0769
▁비난	-11.0769
▁빛이	-11.077
▁무선	-11.077
▁뻗	-11.077
전개	-11.0771
▁어머님	-11.0772
▁짭	-11.0773
▁어릴적	-11.0773
바리	-11.0775
▁결론은	-11.0777
있냐	-11.0779
▁목숨	-11.0779
▁대회	-11.0779
보구	-11.0779
▁사용해	-11.0779
덩이	-11.078
▁NCT	-11.0782
밥상	-11.0782
로부터	-11.0787
▁유령	-11.0788
▁텀블러	-11.0788
▁콩나물	-11.0789
▁필라테스	-11.0789
레즈	-11.0792
▁약간의	-11.0793
▁알아야	-11.0793
▁재밌네	-11.0794
▁없잖아	-11.0798
ᄏᄐᄏᄏ	-11.0798
▁본계	-11.0799
스틴	-11.08
▁역대	-11.08
sh	-11.0801
▁순식간에	-11.0802
▁다신	-11.0802
▁옆자리	-11.0803
켠	-11.0804
▁되니	-11.0804
모르겠	-11.0805
▁게임이	-11.0807
농장	-11.081
▁비극	-11.0811
▁가세요	-11.0819
▁노랑	-11.0819
▁공방	-11.0822
▁지짜	-11.0822
메이드	-11.0822
봤음	-11.0825
사항	-11.0826
▁대체로	-11.0826
겄	-11.0826
▁존잼	-11.0827
▁귀여운데	-11.0827
▁날아가	-11.0827
▁반응이	-11.0828
▁음악을	-11.0829
▁이뤄	-11.083
ru	-11.0831
놓는	-11.0831
십니까	-11.0831
▁핫도그	-11.0832
▁도망가	-11.0833
▁잇어서	-11.0834
헬	-11.0835
▁닥	-11.0837
▁기반	-11.0837
▁가끔씩	-11.0839
▁관광	-11.0839
▁해야하나	-11.084
▁초기	-11.0842
▁맛있는데	-11.0842
▁싱글	-11.0843
▁많지만	-11.0843
vs	-11.0843
▁줄이	-11.0846
▁돌아왔	-11.0846
▁고독	-11.0847
맛스타먹스타그램맛스타그램먹부림	-11.0848
▁반박	-11.0849
▁날에	-11.085
ᅮᅲᅲᅲ	-11.085
AR	-11.0853
▁예전부터	-11.0854
▁시야	-11.0854
▁아까움	-11.0854
해야하는	-11.0857
젼	-11.0857
▁은근히	-11.0859
▁자본	-11.086
▁자본주의	-11.0861
▁좋아했던	-11.0861
▁뭐여	-11.0862
▁모여서	-11.0863
작업	-11.0864
버렸네	-11.0866
▁없기	-11.0868
차가	-11.0868
▁조국	-11.0868
ion	-11.0868
치료	-11.0868
▁반영	-11.0869
리안	-11.0869
person	-11.0871
해야하는데	-11.0871
▁거에요	-11.0872
좋았	-11.0872
▁합시다	-11.0873
▁차를	-11.0874
부장	-11.0875
▁실천	-11.0877
하는걸	-11.0877
▁트럼프	-11.0882
▁중인	-11.0882
▁반짝반짝	-11.0884
▁슬프고	-11.0884
▁당시에	-11.0885
안에서	-11.0886
▁백현이	-11.0887
같네	-11.0888
인들	-11.0888
맞추	-11.089
▁무인	-11.0891
우니까	-11.0891
▁홀로	-11.0892
▁두달	-11.0894
쓰기	-11.0894
주의자	-11.0894
▁이유식	-11.0894
▁계폭	-11.0896
▁검색해	-11.0897
▁아이구	-11.09
ᄅᄅ	-11.0902
예쁜	-11.0905
안되는	-11.0905
▁사람들과	-11.0907
▁돌고	-11.0907
▁그르	-11.0907
▁쪽으로	-11.0907
▁생각으로	-11.0907
▁일러	-11.0915
▁먹으니	-11.0918
셜	-11.0918
▁뺨	-11.0926
▁미션	-11.0926
▁친구들과	-11.0928
▁장인	-11.0929
언니랑	-11.093
▁좋긴	-11.0932
▁아직은	-11.0935
쥔	-11.0938
▁수리	-11.0939
▁곰돌이	-11.0939
▁걸려서	-11.094
▁웨딩	-11.0942
▁잊어	-11.0946
▁이전에	-11.0948
뎌	-11.0948
모든	-11.0949
엿는데	-11.0949
▁스터디	-11.095
▁언팔	-11.0951
▁싫다고	-11.0955
▁코팅	-11.0957
▁생산	-11.0957
심장	-11.0959
▁두분	-11.0959
▁스탈	-11.096
▁예고	-11.0961
▁선선	-11.0961
▁내려오	-11.0961
repost	-11.0961
났어	-11.0962
드레	-11.0963
▁미미	-11.0964
▁흐르는	-11.0967
▁도라	-11.0967
▁세종	-11.0968
▁만났다	-11.0969
▁뭐냐고	-11.0969
ba	-11.0971
안됨	-11.0973
수없는	-11.0975
▁치즈맛	-11.0977
▁재미없어	-11.0978
그게	-11.0979
▁개웃기다	-11.0979
▁만이	-11.0979
▁숨은	-11.0982
같았	-11.0984
▁실컷	-11.0989
▁다가오	-11.0989
서야	-11.0991
▁캐해석	-11.0991
▁조금이라도	-11.0992
모델	-11.0992
▁놀아주	-11.0993
▁수다	-11.0993
였구나	-11.0994
고싶어서	-11.0995
화이팅	-11.0996
부탁	-11.0996
▁걸어서	-11.0998
▁미나	-11.0998
았어요	-11.0999
식을	-11.1
▁죄송해요	-11.1
▁하루하루	-11.1001
▁반반	-11.1001
▁먹으려고	-11.1002
▁긁어	-11.1004
▁노래는	-11.1005
는거임	-11.1005
▁완벽하게	-11.1006
싶었던	-11.1006
▁이겨	-11.1006
▁보장	-11.1006
▁이지랄	-11.1007
▁여성의	-11.1007
▁알겠는데	-11.1008
▁써보	-11.1011
포차	-11.1012
▁시비	-11.1013
▁뜬금없이	-11.1015
▁위험한	-11.1015
낄	-11.1017
캉	-11.1017
▁애슐리	-11.1017
▁성실	-11.1018
밀크	-11.1019
▁셋이	-11.1019
▁가질	-11.1021
▁않았던	-11.1021
▁사랑과	-11.1025
귀여운	-11.1025
▁아시나요	-11.1026
▁있답니다	-11.1026
성은	-11.1027
▁별개로	-11.1027
▁유진	-11.1028
▁아미친	-11.1028
러브	-11.1028
▁보여줄	-11.1029
ー	-11.1029
맞팔	-11.103
▁중독성	-11.1033
▁말고는	-11.1033
▁미쳤나	-11.1034
▁애를	-11.1036
골목	-11.1039
교사	-11.104
▁외계인	-11.104
됴	-11.1041
▁보기엔	-11.1042
커스	-11.1044
▁좋더라	-11.1045
낰	-11.1047
eat	-11.1047
팍	-11.105
▁주사	-11.105
▁칭	-11.105
치를	-11.1051
▁까만	-11.1051
혐오	-11.1052
욬ᄏᄏᄏᄏᄏ	-11.1053
▁알아요	-11.1056
륙	-11.1057
벌레	-11.1058
▁빠지는	-11.106
▁나가고	-11.1061
버리면	-11.1061
▁머라	-11.1061
▁떨려	-11.1062
▁잤다	-11.1063
해졌	-11.1063
▁어이없는	-11.1063
▁흰색	-11.1064
▁알려줘	-11.1065
▁귀한	-11.1065
▁대사가	-11.1067
▁분당	-11.1068
▁보신	-11.107
▁안된다고	-11.1073
▁룸메	-11.1073
▁정신차려	-11.1075
▁생애	-11.1075
▁아미	-11.1076
▁진짜루	-11.1077
▁걱정되	-11.1077
▁아가씨	-11.1078
국어	-11.1079
▁갔을	-11.1082
▁러닝	-11.1082
관이	-11.1083
▁스페셜	-11.1083
▁립스틱	-11.1084
▁순서	-11.1085
드리고	-11.1085
▁시키는	-11.1085
▁퍽퍽	-11.1086
▁말했다	-11.1086
▁장만	-11.109
▁시작했	-11.1091
해보고	-11.1095
지말자	-11.1096
봤더니	-11.1096
▁예를	-11.1097
▁간단한	-11.1098
▁에스엠	-11.1098
▁서른	-11.1098
▁빠르	-11.1098
닦	-11.1099
▁빻	-11.11
▁흑당	-11.11
년전	-11.1101
오프	-11.1101
싯	-11.1101
카츠	-11.1103
팬들	-11.1103
▁되어버린	-11.1104
섹스	-11.1104
▁호감	-11.1104
▁맞아서	-11.1104
ph	-11.1109
▁밖으로	-11.1111
했으니	-11.1111
찾기	-11.1113
▁작아	-11.1113
▁취저	-11.1115
▁트레	-11.1116
▁붙이고	-11.1116
▁정규	-11.1117
▁개미	-11.1118
구먼	-11.1118
▁믿는	-11.1119
▁어때요	-11.1119
▁바라보는	-11.1125
운데	-11.1126
▁쉐이크	-11.1129
▁지성	-11.113
▁신화	-11.1131
봤습니다	-11.1131
켯	-11.1132
▁캐나다	-11.1133
▁달콤한	-11.1133
▁아크	-11.1133
▁오전에	-11.1133
▁컵라면	-11.1136
니랑	-11.1137
직원	-11.1137
▁만세	-11.1138
▁뭐고	-11.1139
▁그니까요	-11.1139
▁올라간	-11.1142
▁정도가	-11.1143
▁피곤한	-11.1144
▁ᅲᅳᅲ	-11.1145
지않나	-11.1145
▁람	-11.1146
▁ᅲᅲᅲᅲᅲᅲᅲᅲᅲᅲ	-11.1147
our	-11.1148
▁셤	-11.1149
▁보고나서	-11.115
와는	-11.1154
▁먹방먹스타그램	-11.1155
sa	-11.1155
▁부분도	-11.1158
뱃	-11.1159
▁잇지	-11.1164
▁가을이	-11.1164
프라푸치노	-11.1166
▁하든	-11.1166
였지	-11.1171
▁촉촉한	-11.1171
▁친정	-11.1172
▁있더라	-11.1172
우진	-11.1172
▁이주	-11.1172
▁자켓	-11.1174
▁키우는	-11.1175
으려나	-11.1177
▁공차	-11.1178
신데	-11.118
려구요	-11.1181
할까봐	-11.1181
뜯	-11.1181
▁it	-11.1182
▁시로	-11.1183
▁지르	-11.1184
ear	-11.1184
▁봤고	-11.1184
▁삼류	-11.1185
▁유치원	-11.1185
▁유혹	-11.1186
▁괜찮았	-11.1187
▁남기고	-11.1187
▁배고프다	-11.1188
▁안보고	-11.1188
▁사극	-11.1188
마당	-11.1191
▁호구	-11.1195
배송	-11.1195
▁베개	-11.1196
었을까	-11.1196
▁유치한	-11.1196
이라구	-11.1197
무기	-11.1198
▁무엇인가	-11.1199
▁잤는데	-11.1199
▁달라서	-11.1199
▁ha	-11.12
▁뱀파이어	-11.1201
▁Be	-11.1201
▁했는지	-11.1202
녀석	-11.1203
▁번만	-11.1204
▁가치가	-11.1209
▁현실이	-11.121
▁아르	-11.1212
으로만	-11.1213
▁오케이	-11.1214
쥬스	-11.1215
▁주무	-11.1215
▁댕	-11.1215
▁훔쳐	-11.1216
짧	-11.1216
▁암만	-11.1216
▁누굴	-11.1217
▁찍으	-11.1218
시계	-11.1219
고생	-11.1221
▁다름	-11.1221
▁저만	-11.1222
▁하여간	-11.1222
▁안들	-11.1223
▁졸려서	-11.1223
▁첨엔	-11.1225
▁의해	-11.1229
▁흐흐	-11.1229
▁낫지	-11.1229
▁단순한	-11.123
▁반갑	-11.1231
▁메이저	-11.1233
▁뜨면	-11.1234
▁그림을	-11.1234
▁못자	-11.1234
▁떠올리	-11.1236
▁깜찍	-11.1237
앉	-11.124
식품	-11.124
때리	-11.1242
해가지고	-11.1243
▁설빙	-11.1245
▁망가	-11.1245
▁부여	-11.1246
▁첫사랑	-11.1246
머신	-11.1247
▁이모티콘	-11.1247
▁튼튼	-11.1247
▁개새끼	-11.1248
▁권리	-11.1248
▁뒤질	-11.125
▁높다	-11.1253
밀크티	-11.1255
▁한자	-11.1257
▁차마	-11.1258
▁또라이	-11.1258
▁알겠다	-11.1259
▁봤었는데	-11.126
곳에서	-11.1261
하고싶은	-11.1262
▁행앗	-11.1263
▁평범	-11.1265
컬러	-11.1265
▁오열	-11.1265
▁지들	-11.1266
▁어쩔수없	-11.1267
▁조롱	-11.1267
▁보고싶은데	-11.1268
▁라라	-11.1272
자들의	-11.1272
▁가는길	-11.1272
▁나간	-11.1272
▁라이프	-11.1273
▁이쪽	-11.1274
▁자체도	-11.1275
▁역할을	-11.1277
감정	-11.1278
▁만나기	-11.1281
이냐고	-11.1281
거냐고	-11.1281
어어	-11.1282
▁잃어	-11.1284
▁춤추	-11.1284
디자인	-11.1284
▁머가	-11.1286
결혼	-11.1286
▁뿐인데	-11.1287
korea	-11.1287
▁구미	-11.1288
▁신문	-11.1288
▁돌아오는	-11.1288
▁쪄	-11.1289
▁친척	-11.1289
컥	-11.129
▁일반인	-11.1291
▁산타	-11.1293
쩡	-11.1293
▁자존심	-11.1294
조림	-11.1294
거아냐	-11.1294
줬어	-11.1295
엑스	-11.1296
▁혼밥	-11.1297
바게트	-11.1299
▁넣었	-11.13
남편	-11.1303
패션	-11.1303
▁스킬	-11.1304
▁환불	-11.1304
▁임산부	-11.1305
▁합성	-11.1307
▁비슷하게	-11.1309
▁퇴근길	-11.1309
충격	-11.1311
이라는데	-11.1311
준영	-11.1311
▁모든걸	-11.1315
▁튀어	-11.1317
▁되겠다	-11.1318
▁그리는	-11.1318
▁문을	-11.1318
물로	-11.1319
▁교시	-11.1319
이들	-11.1319
▁어디갔	-11.132
▁정말이지	-11.1321
▁제주여행	-11.1322
앜ᄏᄏᄏᄏ	-11.1324
▁있도록	-11.1324
▁된거	-11.1328
▁부대	-11.1328
시지	-11.1329
▁오는데	-11.1334
거림	-11.1337
▁노리	-11.1338
▁정권	-11.1339
▁애정하는	-11.134
▁광대	-11.134
▁예쁜데	-11.1341
▁알고있	-11.1341
스프	-11.1342
▁가슴에	-11.1343
▁방어	-11.1346
▁이상의	-11.1347
내놔	-11.1348
우니	-11.1349
▁입이	-11.135
▁우리집에	-11.135
요ᅲᅲᅲ	-11.135
▁몇달	-11.1351
▁지나치게	-11.1351
세상에	-11.1353
▁형사	-11.1357
절대	-11.1357
▁인물들	-11.1358
▁해야겠다	-11.1359
▁투디	-11.1359
▁니트	-11.136
더스	-11.1361
▁주시	-11.1361
▁잘먹	-11.1362
▁스위치	-11.1362
조금	-11.1363
▁칼로리	-11.1363
스피	-11.1363
▁일어났	-11.1364
▁남긴	-11.1364
보스	-11.1365
▁죽겠	-11.1367
▁신선	-11.1367
모니	-11.1368
▁관련된	-11.1368
새끼들아	-11.1368
▁ᄒᄒᄒᄒᄒ	-11.1369
▁올드	-11.137
▁잘자	-11.137
과제	-11.1372
정원	-11.1373
po	-11.1373
걱정	-11.1373
▁뻔뻔	-11.1374
▁될지	-11.1377
프사	-11.1379
▁쩔어	-11.1379
모두	-11.1379
거같고	-11.1379
돌리	-11.1381
▁힘들었	-11.1382
▁걔가	-11.1382
안경	-11.1383
커리	-11.1383
▁포타	-11.1383
▁윈	-11.1384
▁살지	-11.1385
▁로망	-11.1385
▁이뿌	-11.1385
▁부채	-11.1386
▁민서	-11.1386
엿다	-11.1387
▁일어나면	-11.1387
ave	-11.1388
▁장면에서	-11.1388
▁일째	-11.1389
▁미남	-11.139
▁줄이야	-11.139
▁강간	-11.1391
▁아무거나	-11.1392
분은	-11.1393
▁맛있다고	-11.1395
▁뵙	-11.1395
둬야	-11.1396
▁불쌍한	-11.1397
▁병맛	-11.1397
▁만나러	-11.1398
▁사랑스러워	-11.1399
나왔	-11.1401
▁기대된다	-11.1402
먹고싶	-11.1402
▁언제부터	-11.1402
▁쟤네	-11.1403
먹었는데	-11.1403
▁하여	-11.1406
▁죽었	-11.1406
중독	-11.1407
▁좋은영화	-11.1407
▁친해지	-11.1409
할뻔	-11.1409
▁강연	-11.1412
롯데	-11.1414
▁무한리필	-11.1414
▁la	-11.1416
▁왕창	-11.1417
▁ᅮᅮᅮᅮᅮ	-11.1418
크리	-11.1418
▁남아서	-11.1418
▁술스타그램	-11.1419
▁덧	-11.142
꼈	-11.142
▁체고	-11.142
▁바빠	-11.142
존맛	-11.1422
하였다	-11.1422
▁저격	-11.1422
▁두려워	-11.1423
▁do	-11.1427
▁성격이	-11.1427
▁시작하면	-11.1428
껀	-11.143
▁보라고	-11.1431
▁표절	-11.1432
픈	-11.1432
▁이름으로	-11.1433
기다리	-11.1434
▁소재로	-11.1434
▁했네	-11.1435
▁단단	-11.1437
▁때의	-11.1438
당신	-11.144
▁기연	-11.144
하하	-11.1442
▁드라마가	-11.1442
오르	-11.1443
▁멀쩡한	-11.1443
▁형아	-11.1444
했구나	-11.1445
▁스카이	-11.1446
▁httpwww	-11.1447
화면	-11.1447
▁함께한	-11.1448
보겠습니다	-11.1449
▁조식	-11.1452
▁된다면	-11.1452
▁댄	-11.1453
다섯	-11.1453
ᅲᅲᅲᅲᅲᅲᅲᅲᅲᅲᅲᅲᅲ	-11.1453
▁들어요	-11.1454
▁찍으면	-11.1456
▁절망	-11.1456
▁연관	-11.1456
간에	-11.1459
▁베르	-11.1459
▁좆같	-11.146
▁세상의	-11.1461
▁교토	-11.1461
장은	-11.1463
▁다음주에	-11.1465
▁이뻐서	-11.1466
쫌	-11.1466
▁책도	-11.1468
▁쓸데없이	-11.1471
▁만들어주	-11.1472
▁밀가루	-11.1473
▁이러면서	-11.1474
▁디게	-11.1475
▁라인업	-11.1475
▁스토리를	-11.1477
▁장어	-11.1477
▁심심해서	-11.1477
▁등이	-11.1477
▁볶	-11.148
줍	-11.148
▁뜸	-11.1484
성에	-11.1485
스시	-11.1486
▁망작	-11.1486
▁떠난	-11.1486
▁저때	-11.149
▁표정으로	-11.1492
▁친구는	-11.1492
▁로드	-11.1494
툰	-11.1494
tokki	-11.1494
▁파리바게트	-11.1495
▁오예	-11.1496
▁토니	-11.1497
▁흑백	-11.1497
▁무게	-11.1499
▁표현이	-11.1502
오징어	-11.1502
한남	-11.1503
▁있겠다	-11.1503
▁맞게	-11.1503
▁튀	-11.1504
▁패키지	-11.1504
형제	-11.1506
▁좋겠습니다	-11.1506
▁적용	-11.1507
▁페이스북	-11.1507
구매	-11.1508
ty	-11.1509
▁바르고	-11.1509
▁냈	-11.1509
당하는	-11.151
▁생일이	-11.151
술집	-11.1512
▁민족	-11.1513
달려	-11.1513
글이	-11.1514
▁익숙해	-11.1514
▁강요	-11.1517
어쩌구	-11.1517
▁이수	-11.1517
▁식감이	-11.1518
▁진주	-11.1518
훼	-11.1518
히고	-11.1518
▁크으	-11.152
웠는데	-11.1522
▁얼굴만	-11.1523
레이션	-11.1523
틸	-11.1525
▁삼촌	-11.1527
▁함정	-11.1528
▁앞뒤	-11.1528
▁붓	-11.153
▁어떡하냐	-11.153
갖	-11.153
린데	-11.1533
▁부국제	-11.1533
▁캐리어	-11.1534
세제	-11.1534
▁은퇴	-11.1535
▁울었	-11.1536
▁얘기하는	-11.1538
웰	-11.1539
▁한때	-11.1539
마시고	-11.1542
▁su	-11.1542
▁bandal	-11.1542
식탁	-11.1544
▁성공적	-11.1544
▁클로	-11.1545
아야	-11.1546
▁겨울이	-11.1546
비스	-11.1547
▁재미있고	-11.1552
▁넣으면	-11.1553
▁씨바	-11.1553
▁정기	-11.1554
▁무거운	-11.1554
▁대작	-11.1558
쑥	-11.1562
고십다	-11.1564
▁뚜껑	-11.1565
곳에	-11.1568
▁유료	-11.1568
▁지루하	-11.1568
▁스토리에	-11.1571
▁일본인	-11.1571
느끼	-11.1572
▁이즈	-11.1572
▁유쾌한	-11.1573
전이	-11.1573
▁매운맛	-11.1573
브라운	-11.1574
율이	-11.1574
사의	-11.1575
▁소품	-11.1576
▁명란	-11.1577
▁신인	-11.1578
▁괴로워	-11.1579
▁서점	-11.158
아마	-11.1581
셔츠	-11.1581
▁상태에서	-11.1582
▁파인애플	-11.1583
▁감이	-11.1585
▁님의	-11.1585
▁어쩔수	-11.1586
▁또다른	-11.1586
너무좋아	-11.1587
▁se	-11.1587
높	-11.1587
▁나왔어	-11.1588
▁아까워서	-11.1588
▁St	-11.1588
꼬치	-11.1589
▁남는다	-11.159
사기	-11.159
▁유투브	-11.159
▁운동화	-11.159
튜	-11.1591
▁차례	-11.1591
십니다	-11.1592
싫다	-11.1594
▁수염	-11.1594
▁아쉽지만	-11.1595
▁요약	-11.1596
▁피크닉	-11.1597
▁on	-11.1598
▁작가의	-11.1598
▁좋아하지만	-11.1599
씌	-11.1599
▁부끄럽	-11.16
▁분식	-11.1601
티켓	-11.1601
▁보시면	-11.1601
▁말하지	-11.1601
▁하던데	-11.1602
▁초점	-11.1603
▁접어	-11.1604
▁조용한	-11.1606
▁멋있는	-11.1607
▁혐	-11.1607
▁호랑이	-11.1608
▁장난치	-11.1609
▁다리가	-11.161
▁무언가를	-11.1612
per	-11.1613
▁팡	-11.1614
먼저	-11.1614
▁trif	-11.1615
온거	-11.1615
▁지루해	-11.1615
▁떨어졌	-11.1617
▁뱃지	-11.1618
▁뱀	-11.1619
▁걸렸	-11.1622
▁볼때	-11.1623
배경	-11.1625
보았다	-11.1625
애들이	-11.1625
▁감사한	-11.1629
반찬	-11.1631
▁문어	-11.1632
▁김태	-11.1635
▁그다지	-11.1636
늠	-11.1637
▁상황에	-11.1638
▁청와대	-11.1639
봤던	-11.164
아픈	-11.164
미야	-11.164
▁티비에서	-11.1641
▁가능성이	-11.1641
▁친구들아	-11.1643
▁얄	-11.1644
죽이	-11.1646
▁전용	-11.1646
줬더니	-11.1646
▁고인물	-11.1648
▁실시간	-11.1648
씨의	-11.1648
▁폐지	-11.1648
첸	-11.165
▁다시한번	-11.165
▁미친놈	-11.1653
▁빨라	-11.1654
▁생각하니까	-11.1657
ᅡᅡ	-11.1657
▁잠깐만	-11.1658
했잖아	-11.166
▁시쯤	-11.166
▁나가면	-11.1661
쪽은	-11.1662
▁아니네	-11.1662
▁나와요	-11.1662
▁드라이브	-11.1663
▁틀린	-11.1663
▁ᄒᄉᄒ	-11.1664
▁이끌어	-11.1664
▁에로	-11.1665
놨는데	-11.1666
▁덥고	-11.1667
▁여신	-11.1667
실망	-11.1668
▁말이죠	-11.167
▁핵심	-11.1672
▁묶어	-11.1672
축하	-11.1672
할수가	-11.1672
진거	-11.1674
졋어	-11.1676
▁go	-11.1676
생각이	-11.1676
▁이빨	-11.1677
가세요	-11.1677
▁봐줘	-11.1677
▁것임	-11.1678
이라며	-11.1678
인지는	-11.1678
▁기쁘	-11.1679
▁부치	-11.1682
▁제거	-11.1683
▁뷔페	-11.1683
위로	-11.1684
▁겉에	-11.1685
▁내새끼	-11.1685
▁엌	-11.1687
지네	-11.1687
▁시켰는데	-11.1689
▁에피	-11.1691
▁실수로	-11.1692
오타쿠	-11.1695
▁일만	-11.1695
코트	-11.1695
찌개	-11.1696
▁개웃기네	-11.1697
크리스마스	-11.1698
뒷	-11.1698
쪙	-11.1699
▁동네에	-11.1699
옆에	-11.17
▁큼	-11.1701
▁미뤄	-11.1701
▁떨리	-11.1704
됏	-11.1704
▁앞두고	-11.1704
겠군	-11.1704
▁엉망	-11.1706
ung	-11.1707
쇠	-11.1707
걷	-11.171
얏	-11.1711
봤자	-11.1711
고마워	-11.1711
▁같았다	-11.1714
해야해	-11.1716
짜장	-11.1716
스로	-11.1717
받음	-11.1717
▁되겠지	-11.1719
▁좋다는	-11.1721
ni	-11.1723
▁간편	-11.1725
▁라이트	-11.1726
▁마음도	-11.1727
생각해	-11.1728
▁마케팅	-11.1729
▁아니근데	-11.1729
▁샷	-11.1729
▁알티한	-11.173
▁크리	-11.1731
▁년전에	-11.1731
보다도	-11.1731
▁좋았을	-11.1732
콜라	-11.1732
▁삼각	-11.1733
더라면	-11.1733
▁소설을	-11.1735
▁그림이	-11.1735
▁장애인	-11.1735
붙이	-11.1736
▁엑시트	-11.1736
낸다	-11.1736
yo	-11.174
코리아	-11.174
▁정신병	-11.1741
▁통일	-11.1741
▁늙	-11.1742
뷰티	-11.1743
▁오자마자	-11.1744
최고의	-11.1745
▁독자	-11.1745
ᄏᄀᄏᄏ	-11.1745
▁디비	-11.1745
호가	-11.1745
▁케어	-11.1746
▁le	-11.1747
해야함	-11.1748
▁의정부	-11.1748
됐는데	-11.1751
▁답장	-11.1751
▁두근	-11.1751
▁백합	-11.1752
▁흐르	-11.1753
▁놀다가	-11.1754
▁쿠리	-11.1755
▁점심에	-11.1756
왓어	-11.1756
▁영화들	-11.1756
▁우울증	-11.1757
▁떨어	-11.1757
꿍	-11.1758
▁마신	-11.1759
이쁘	-11.1759
ᄈ	-11.176
▁끊임없이	-11.176
▁검찰	-11.1761
▁나갔	-11.1762
▁시집	-11.1762
▁트윗이	-11.1763
su	-11.1764
스턴	-11.1765
▁심야	-11.1766
았습니다	-11.1768
어쩌	-11.177
작은	-11.1771
멤버	-11.1772
▁죽이는	-11.1772
뎁	-11.1772
교수	-11.1772
아깝다	-11.1773
▁계좌	-11.1774
▁대화를	-11.1776
ound	-11.1777
클라	-11.1778
하는거야	-11.1779
솥	-11.1779
▁에그	-11.178
하노	-11.178
▁이럴수가	-11.1781
▁시작된	-11.1783
▁음식이	-11.1783
▁아름답고	-11.1785
cr	-11.1785
▁청량	-11.1785
▁갚	-11.1789
▁성향	-11.179
▁일이다	-11.179
▁받는다	-11.1792
밤에	-11.1794
▁신앙	-11.1794
▁있는건	-11.1794
▁아시아	-11.1795
샐	-11.1797
▁시작해	-11.1798
▁존내	-11.1798
▁할말이	-11.1799
▁브금	-11.1801
달까	-11.1801
▁My	-11.1802
▁나쁘	-11.1802
▁아니라는	-11.1802
▁들어있는	-11.1803
▁예뿌	-11.1803
▁스크	-11.1804
▁모르는데	-11.1804
▁입으로	-11.1805
블락	-11.1805
▁악몽	-11.1805
▁좋아했	-11.1807
▁할수있	-11.1808
텅	-11.1809
▁사실상	-11.1809
▁쫄깃쫄깃	-11.1809
▁좋아하시는	-11.1809
RPG	-11.1809
▁이쯤되면	-11.1809
곧	-11.1809
찍고	-11.1811
▁스틸	-11.1812
▁피드백	-11.1812
미치	-11.1815
해주면	-11.1816
▁빼로	-11.1817
▁얼굴은	-11.1818
알못	-11.182
최악	-11.1821
▁잘생김	-11.1823
▁PC	-11.1823
▁써도	-11.1829
▁현실은	-11.1829
▁조조	-11.183
뎀	-11.1834
▁서울역	-11.1834
▁말구	-11.1835
▁사이버	-11.1835
▁상상도	-11.1837
리언	-11.1837
▁유진이	-11.1838
▁어이없어	-11.184
무침	-11.1841
아닌가	-11.1842
▁위기	-11.1843
퉁	-11.1844
생겼	-11.1846
▁지오디	-11.1846
도서관	-11.1848
▁살아서	-11.1848
▁반말	-11.185
흐흐	-11.185
▁의욕	-11.1851
▁죽는다	-11.1852
▁마셨	-11.1853
▁감흥	-11.1853
▁들리는	-11.1854
죽을	-11.1855
생겻	-11.1855
깊	-11.1855
가격	-11.1856
▁좋았습니다	-11.1856
이었지만	-11.1857
▁그자체	-11.1858
▁아무렇지	-11.186
▁버릇	-11.1862
하기엔	-11.1864
▁달리는	-11.1864
해야한다	-11.1865
여운	-11.1866
밑	-11.1867
신거	-11.1867
▁채소	-11.1869
ok	-11.1869
▁후자	-11.187
▁담임	-11.1871
▁봉사	-11.1873
쇼콜라	-11.1875
▁괜찮으	-11.1875
지않을까	-11.1875
pic	-11.1876
▁북스타그램	-11.1876
천국	-11.1876
▁이런저런	-11.1877
적이다	-11.1879
▁안산	-11.188
전문	-11.1881
▁나온거	-11.1881
영화다	-11.1883
▁인증샷	-11.1885
전화	-11.1885
▁복근	-11.1885
강추	-11.1887
▁뒤집	-11.1887
▁테러	-11.1887
▁챙	-11.1889
파트	-11.1891
▁뮤직	-11.1892
▁쟁	-11.1894
▁기엽다	-11.1894
모찌	-11.1894
터지	-11.1896
▁좋앗	-11.1896
▁귀엽네	-11.1897
▁살자	-11.1898
▁트위터를	-11.1899
▁Z	-11.1899
▁지정	-11.1899
▁시시	-11.1901
▁지나고	-11.1901
▁반대로	-11.1902
▁빻은	-11.1902
▁되네요	-11.1902
미는	-11.1907
▁지은	-11.1908
▁중요하다	-11.191
할만한	-11.1914
▁전에는	-11.1915
▁미인	-11.1916
핳	-11.1917
▁배트맨	-11.192
▁방치	-11.1921
덕분에	-11.1923
가네	-11.1923
▁미디어	-11.1924
▁불과	-11.1924
시퍼	-11.1925
▁밥은	-11.1927
지롱	-11.1928
해용	-11.1929
괜찮	-11.1932
눙	-11.1932
▁새누리당	-11.1932
▁백종원	-11.1933
▁아이즈원	-11.1933
▁토요일에	-11.1934
▁당한	-11.1936
▁스마트	-11.1936
ze	-11.1938
반전	-11.1939
▁뭔가를	-11.1939
일수도	-11.194
▁잔인한	-11.1941
▁두통	-11.1941
▁건조한	-11.1941
▁시급	-11.1942
▁마주치	-11.1946
▁온몸	-11.1946
다들	-11.1946
가능한	-11.1946
상으로	-11.1947
짜증나	-11.1948
에대한	-11.1949
▁얻은	-11.1949
▁능력이	-11.195
▁사진만	-11.195
줄까	-11.1951
패스	-11.1951
▁다해	-11.1952
▁될듯	-11.1953
우드	-11.1959
잣	-11.196
▁감사하	-11.1962
ock	-11.1962
루트	-11.1964
▁존예	-11.1966
대장	-11.1966
▁시반	-11.1967
▁몫	-11.1968
필드	-11.1969
기에는	-11.1969
▁이케	-11.197
융	-11.197
출연	-11.1971
맛잇	-11.1971
▁거짓	-11.1974
▁좋아했는데	-11.1975
▁처음에는	-11.1977
▁숨쉬	-11.1978
줄이야	-11.1978
▁한판	-11.1979
할인	-11.1979
▁리듬	-11.198
▁나라를	-11.1981
▁불고기	-11.1983
▁확실	-11.1984
▁정말정말	-11.1984
ᅲᅮᅮᅮ	-11.1984
▁알면	-11.1986
▁He	-11.1987
줍니다	-11.1988
작이	-11.199
▁스텝	-11.199
▁들어올	-11.1992
ᄒᄒᄒᄒᄒ	-11.1992
▁즐기고	-11.1993
제를	-11.1993
▁아육대	-11.1995
▁얇은	-11.1995
줘야지	-11.1998
의미	-11.1998
▁먹어보고	-11.2
하지마세요	-11.2
▁열받	-11.2
▁삭	-11.2002
▁맛난거	-11.2002
▁흡입	-11.2002
▁Co	-11.2003
▁도배	-11.2005
▁우리학교	-11.2005
▁개인적인	-11.2006
먹자	-11.2007
▁스알짝	-11.2007
사장	-11.2011
▁부분을	-11.2011
▁조심하	-11.2012
▁타인	-11.2012
▁ᄋᄉᄋ	-11.2014
팔이	-11.2014
▁기침	-11.2014
▁자첫	-11.2015
▁길거리	-11.2016
▁하더니	-11.2017
▁해볼까	-11.2019
모를	-11.2019
했냐	-11.202
▁블루투스	-11.202
▁확실한	-11.2022
▁늦었	-11.2023
▁파도	-11.2023
▁제법	-11.2025
▁비유	-11.2025
▁여자들이	-11.2026
▁줄거리는	-11.2026
고추	-11.2028
▁돼지고기	-11.203
▁배울	-11.2031
▁일상소통	-11.2032
▁샘플	-11.2032
▁해줘야	-11.2033
▁고대	-11.2033
릴때	-11.2033
▁테마	-11.2034
▁즈	-11.2036
기업	-11.2037
▁전교조	-11.2038
▁장마	-11.2038
▁조금은	-11.2039
조아요	-11.2039
▁보고싶어요	-11.204
▁여운	-11.2045
▁구두	-11.2045
▁슬쩍	-11.2046
드아	-11.2046
▁키키	-11.2047
▁단풍	-11.2047
보리	-11.2048
투표	-11.2049
▁열리	-11.2052
플라	-11.2053
▁운다	-11.2053
실에서	-11.2053
ist	-11.2053
▁황제	-11.2054
스트로	-11.2054
▁신부	-11.2055
▁중복	-11.2056
▁짖	-11.2057
▁잃은	-11.2057
▁파고	-11.2057
걸까요	-11.2057
▁몸무게	-11.2058
▁렙	-11.2059
▁먹고싶어서	-11.206
▁씀	-11.2061
▁조폭	-11.2061
ᅲᅮᅲᅲ	-11.2061
▁대표님	-11.2062
정권	-11.2062
▁캐롤	-11.2063
▁이렇	-11.2064
▁깊게	-11.2064
▁사이드	-11.2066
될듯	-11.2066
▁반바지	-11.2067
주니	-11.2069
릅	-11.2069
▁받기	-11.2069
▁말이에요	-11.207
▁스티븐	-11.207
▁하죠	-11.2071
▁휴지	-11.2072
▁같았	-11.2077
br	-11.2077
▁그들이	-11.2077
▁굴리	-11.2077
▁wann	-11.2078
▁놀람	-11.2079
▁매직	-11.2079
▁뿅	-11.2081
ju	-11.2082
▁드라이	-11.2083
▁뽑았	-11.2083
han	-11.2085
▁중학생	-11.2086
못하고	-11.2087
▁호흡	-11.2087
▁집앞	-11.2089
장애	-11.2089
▁대선	-11.209
▁윌	-11.209
발랄	-11.2095
순대	-11.2095
▁지금의	-11.2096
ah	-11.2096
바보	-11.2097
▁꾹	-11.2097
▁않네요	-11.2098
▁서울대	-11.2099
old	-11.2099
▁본거	-11.2101
▁리틀	-11.2104
▁효과가	-11.2104
혀니	-11.2105
RE	-11.2105
▁아플	-11.2106
▁영원한	-11.2106
패드	-11.2107
▁그립	-11.2107
▁음성	-11.2107
너스	-11.2108
ღ	-11.2113
▁마시면	-11.2116
페이스	-11.2117
▁방영	-11.2118
해버린	-11.2118
하라는	-11.2119
기여워	-11.212
▁쓰러	-11.212
▁드레스	-11.212
으시면	-11.2121
셍	-11.2121
▁심각한	-11.2122
▁말아야	-11.2122
토마토	-11.2122
십쇼	-11.2122
▁최저	-11.2122
▁교체	-11.2122
▁하려	-11.2125
▁사실이	-11.2125
둘이	-11.2126
▁방식으로	-11.2129
▁집가	-11.2129
▁디엠으로	-11.213
▁미래의	-11.213
더러	-11.2131
▁Me	-11.2132
▁터치	-11.2132
▁반전이	-11.2132
▁Im	-11.2133
yummy	-11.2134
기도하고	-11.2134
▁늘어나	-11.2134
▁날씨도	-11.2134
▁오신	-11.2134
부가	-11.2135
▁잃어버린	-11.2136
▁해본	-11.2137
렇	-11.2137
의식	-11.2139
실패	-11.214
▁고모	-11.214
▁마이너	-11.2141
▁바뀌는	-11.2142
해조	-11.2142
▁태용	-11.2145
▁뛰어난	-11.2145
▁도둑	-11.2146
▁제정신	-11.2147
▁해피엔딩	-11.2147
▁나름대로	-11.2148
gi	-11.2148
▁아니잖아	-11.2148
▁곳으로	-11.2148
한잔	-11.2149
▁살살	-11.2151
붐	-11.2152
▁마마	-11.2153
▁여러분들	-11.2158
▁울집	-11.2158
▁뫄뫄	-11.2159
▁수강신청	-11.2159
▁드러내	-11.2161
뭐지	-11.2161
▁즐거웠	-11.2162
소재	-11.2162
▁꼬맹이	-11.2165
▁적폐	-11.2166
셨어	-11.2166
▁맡은	-11.2166
▁되네	-11.2167
금지	-11.2168
무스	-11.2169
헤헤	-11.2171
▁머릿속	-11.2171
▁가이드	-11.2171
▁깨달음	-11.2172
▁앞서	-11.2173
▁평론가	-11.2174
비를	-11.2175
▁차는	-11.2176
▁늙은	-11.2176
▁책읽	-11.2177
스튜디오	-11.2178
▁잠도	-11.2178
▁카페에	-11.2179
▁들엇	-11.218
끄러	-11.2182
▁이만큼	-11.2182
▁하더라	-11.2183
▁미드소마	-11.2185
▁우연	-11.2187
▁가루	-11.219
▁플로우	-11.2192
▁만져	-11.2192
▁나만의	-11.2192
▁수행	-11.2194
▁독특	-11.2194
▁조아해	-11.2195
자님	-11.2195
숫	-11.2197
▁걷고	-11.2197
하도록	-11.2198
나오면	-11.2199
▁빨갱이	-11.22
▁거실	-11.2201
맠	-11.2201
▁명예	-11.2201
▁입에서	-11.2201
실래요	-11.2202
▁담백	-11.2203
▁됏	-11.2204
차를	-11.2205
이미	-11.2208
▁있단	-11.2209
셉	-11.221
themoon	-11.221
▁낭	-11.2211
▁드릴	-11.2211
▁낯설	-11.2212
▁매력적이	-11.2213
▁츠	-11.2213
▁왔다갔다	-11.2214
▁형이	-11.2216
▁보관	-11.2216
▁양배추	-11.2217
정부	-11.222
됬	-11.2221
▁km	-11.2223
븨	-11.2223
▁장르가	-11.2224
ever	-11.2224
보며	-11.2225
봐야겠어요	-11.2225
▁누가봐도	-11.2226
▁기원	-11.2227
▁가방에	-11.2228
▁가죽	-11.223
턱	-11.223
▁도와	-11.2231
▁멋있어	-11.2231
▁서운	-11.2231
▁언더	-11.2231
역맛집	-11.2232
▁재밌어서	-11.2232
못하는	-11.2232
▁필기	-11.2232
▁없구	-11.2233
▁간다고	-11.2234
▁일본영화	-11.2234
▁지나서	-11.2236
▁버거킹	-11.2238
으니깐	-11.2238
확인	-11.224
▁더러워	-11.224
▁갈라	-11.2242
▁신사	-11.2244
쪽이	-11.2245
▁처음이다	-11.2247
▁캐릭터를	-11.2248
▁낯선	-11.2249
▁물고	-11.2249
▁별명	-11.2252
웃기네	-11.2252
경제	-11.2253
▁가능하다	-11.2253
▁변경	-11.2253
▁사라졌	-11.2257
쿼	-11.2261
아니야	-11.2262
▁고개를	-11.2263
ner	-11.2263
실수	-11.2263
배달	-11.2264
시네요	-11.2264
▁세월	-11.2267
▁or	-11.2267
▁위협	-11.2268
▁한식	-11.2268
▁허버허버	-11.2269
▁사유	-11.227
▁근거	-11.227
파는	-11.2271
레나	-11.2271
my	-11.2272
맞춰	-11.2272
미쳤	-11.2273
▁보고있	-11.2274
연수	-11.2277
▁비상	-11.2277
▁나아	-11.2278
주문	-11.2278
▁뚝	-11.2278
▁스카	-11.2279
▁몇번을	-11.2279
올린	-11.228
▁가본	-11.2281
▁으아악	-11.2281
잭	-11.2282
▁할배	-11.2282
▁한줄	-11.2283
▁day	-11.2283
▁건축	-11.2285
▁김민	-11.2285
란이	-11.2286
불가	-11.2287
▁하나님의	-11.2287
▁서브웨이	-11.2288
▁이민	-11.2289
쩜	-11.2291
법을	-11.2292
▁원조	-11.2293
모가	-11.2294
▁맡겨	-11.2299
▁깡	-11.23
▁안함	-11.2301
▁기대가	-11.2302
▁올라와	-11.2303
▁느그	-11.2304
▁주인공들	-11.2304
전을	-11.2304
▁할게요	-11.2305
▁부지런	-11.2309
▁기억을	-11.2311
▁년의	-11.2314
▁양아치	-11.2316
▁마마무	-11.2318
▁접시	-11.2318
▁지나간	-11.2319
갈비찜	-11.2322
차림	-11.2322
▁통통	-11.2322
▁주셔서	-11.2322
▁되세요	-11.2327
AM	-11.2329
로그	-11.2329
한테는	-11.2329
닛	-11.2329
ish	-11.2331
▁길고	-11.2332
▁랜	-11.2332
▁가져오	-11.2332
▁이영화는	-11.2334
갓다	-11.2335
찔	-11.2336
모스	-11.2337
겟죠	-11.2338
앗어	-11.2339
▁전자렌지	-11.2339
▁몸은	-11.234
할머니	-11.2341
▁대세	-11.2342
ya	-11.2343
▁요런	-11.2343
▁말인가	-11.2344
▁화려하	-11.2346
소리가	-11.2347
혐	-11.2349
▁착장	-11.2349
▁좋겠는데	-11.235
▁어쩌다보니	-11.2351
▁뿜뿜	-11.2353
▁아끼	-11.2354
▁스펙	-11.2355
▁스팸	-11.2355
관련	-11.2356
▁불꽃	-11.2356
중임	-11.2357
▁하나요	-11.2357
▁솔직	-11.2357
▁굿굿	-11.2358
▁여우	-11.2358
▁존재하는	-11.2359
팽	-11.2361
▁기회를	-11.2361
됐어	-11.2361
▁기본적으로	-11.2365
▁자퇴	-11.2366
▁세상은	-11.2368
마실	-11.2369
였다고	-11.237
▁아시죠	-11.2373
▁예비	-11.2373
UN	-11.2373
▁니들이	-11.2374
브라우니	-11.2374
리님	-11.2375
양이	-11.2376
▁전략	-11.2379
탱이	-11.238
▁망했	-11.238
이라는게	-11.238
▁기르	-11.2381
▁냉장고에	-11.2383
녹차	-11.2384
▁엠씨	-11.2385
▁지금부터	-11.2385
봣어	-11.2386
▁알았어요	-11.2386
▁거니까	-11.2386
▁한결	-11.2387
▁받지	-11.2387
▁장난아니	-11.239
▁오후에	-11.2391
▁콘텐츠	-11.2391
성과	-11.2391
ng	-11.2394
전까지	-11.2395
친구가	-11.2396
앗음	-11.2396
명작	-11.2397
▁좋당	-11.2397
예쁘	-11.2397
▁회원	-11.2398
▁특이	-11.2398
▁실은	-11.2398
▁웃었	-11.2399
▁훌쩍	-11.2404
주심	-11.2406
▁알지만	-11.2406
▁한남동	-11.2407
▁고객	-11.2407
튜브	-11.2407
▁실사	-11.241
▁여자애	-11.241
▁알겟	-11.2412
▁보이면	-11.2418
▁상쾌	-11.242
▁창원	-11.2421
그랫	-11.2421
터짐	-11.2422
▁파우치	-11.2422
일상먹방먹짤먹방	-11.2424
ᄌᄉ	-11.2424
▁정치적	-11.2425
▁훈훈	-11.2425
tt	-11.2426
맵	-11.2426
▁캘리	-11.2427
낳	-11.2428
▁만나요	-11.2428
녓	-11.243
▁미술관	-11.2431
▁줘야	-11.2431
관람	-11.2431
he	-11.2432
약속	-11.2432
▁단어가	-11.2434
▁생일선물	-11.2434
▁표시	-11.2434
▁깨서	-11.2435
▁그만두	-11.2435
▁평이	-11.2437
▁번개	-11.2438
▁두피	-11.2439
▁알차게	-11.244
▁가만	-11.2441
▁먹어봤	-11.2441
▁가능할	-11.2442
▁서울에	-11.2443
냔	-11.2443
▁가상	-11.2444
▁쭈꾸미	-11.2444
요ᅲᅲᅲᅲ	-11.2445
▁하라	-11.2446
▁윽	-11.2446
▁외에	-11.2447
▁늠	-11.2447
상담	-11.2449
▁들지	-11.2449
트위터	-11.2454
▁주민	-11.2454
▁뱉	-11.2454
▁요번	-11.2454
▁자기는	-11.2456
▁흥미로운	-11.2457
▁저렴한	-11.2459
아니다	-11.2459
▁브라우니	-11.246
▁빛을	-11.2462
뻐	-11.2463
ae	-11.2463
▁든든	-11.2464
▁마우스	-11.2468
▁약한	-11.2469
▁쓰는거	-11.2473
두면	-11.2473
▁보여줬	-11.2474
▁얼굴도	-11.2475
▁옵	-11.2475
▁신제품	-11.2475
▁공사	-11.2476
▁거대한	-11.2477
▁페이스	-11.2478
▁이상으로	-11.2478
ub	-11.2478
꼼	-11.2479
당하고	-11.2479
▁해야하는데	-11.2479
벙	-11.2479
▁빌런	-11.2481
▁접근	-11.2481
▁템	-11.2485
낫다	-11.2485
▁시원해	-11.2486
vi	-11.2487
단지	-11.2488
▁몇명	-11.2488
▁올라가는	-11.2488
있지만	-11.249
▁여성이	-11.2494
ᄄ	-11.2496
▁소속	-11.2496
▁퀸덤	-11.2496
▁테레즈	-11.2496
조선	-11.2497
▁지배	-11.2497
보호	-11.2497
려다	-11.2497
▁발리	-11.2498
▁찢	-11.2498
웃긴	-11.2498
달달	-11.2501
비어	-11.2502
▁보임	-11.2503
▁열고	-11.2503
▁깔깔	-11.2503
ps	-11.2504
만족	-11.2505
▁그들은	-11.2505
▁둘러	-11.2508
▁생각중	-11.2508
▁FC	-11.2509
▁켄	-11.251
▁부드럽고	-11.2512
베베	-11.2513
▁짜리	-11.2515
▁식탁	-11.2516
▁음료수	-11.2517
탠	-11.2519
▁있으신	-11.252
▁피부를	-11.252
뿜	-11.252
▁빼고는	-11.252
▁생신	-11.2521
▁줄여	-11.2522
▁불쌍	-11.2522
▁드럽게	-11.2522
ᄏᄏ큐ᅲᅲ	-11.2523
▁과몰입	-11.2523
▁적절한	-11.2523
▁않았을까	-11.2524
▁노동자	-11.2525
▁이길	-11.2526
▁그랬어	-11.2528
▁버릴	-11.2532
▁읽었다	-11.2533
바꾸	-11.2536
위원회	-11.2538
▁담배피	-11.2538
▁클린	-11.2539
해준다	-11.254
▁아들이	-11.2541
ds	-11.2542
경기	-11.2542
결제	-11.2542
▁오천	-11.2542
만은	-11.2543
ᅲᅲᅮᅮ	-11.2544
▁숨기	-11.2545
▁지친	-11.2545
ell	-11.2546
▁전원	-11.2546
▁너무너무너무	-11.2547
▁보고서	-11.2548
탈출	-11.2549
▁모드	-11.2549
▁조이	-11.2549
준거	-11.255
▁잔인하	-11.255
▁못했던	-11.255
▁먹스타	-11.2551
▁육아맘	-11.2551
▁범죄자	-11.2551
▁전문점	-11.2552
▁모먼트	-11.2552
▁쪽이	-11.2555
▁춤추는	-11.2555
근처	-11.2556
질러	-11.2558
▁펫	-11.2559
▁아이들과	-11.256
▁의무	-11.256
▁거래	-11.256
▁뭐하냐	-11.256
▁장식	-11.256
숑	-11.2562
▁정신차리	-11.2562
▁정석	-11.2563
▁블루레이	-11.2563
▁진부	-11.2565
▁가르쳐	-11.2567
▁코노	-11.257
렙	-11.2571
▁없는게	-11.2572
▁추천해	-11.2573
▁밈	-11.2573
▁그렇습니다	-11.2574
▁무슨일이야	-11.2574
▁잇으면	-11.2575
▁프레	-11.2575
갘	-11.2575
▁왜이러	-11.2576
▁짜증남	-11.2576
▁우울해	-11.2576
▁웃겼	-11.2577
▁느낀다	-11.2579
▁첫줄	-11.2579
▁이럼	-11.2582
▁가고싶어	-11.2584
벌써	-11.2587
▁레고	-11.2587
땨	-11.2588
▁없을까	-11.2592
▁아팠	-11.2592
간다고	-11.2593
SS	-11.2594
▁받으러	-11.2594
▁했다는	-11.2595
▁한심	-11.2597
▁친구를	-11.2597
했을까	-11.2598
▁쓰리	-11.2598
▁다정한	-11.2598
▁천장	-11.2599
▁오로지	-11.2599
맞은	-11.2599
▁기준으로	-11.26
결말	-11.26
쮸	-11.2601
봅시다	-11.2601
▁시우민	-11.2602
▁롯데리아	-11.2603
▁옥상	-11.2604
만큼이나	-11.2605
▁있을때	-11.2607
모르겟	-11.2608
비아	-11.2609
▁마음속	-11.2612
▁머냐	-11.2613
▁닮았다	-11.2615
▁재고	-11.2615
▁어려움	-11.2616
되네	-11.2617
▁쪼끔	-11.2617
ᄅᄋ	-11.2621
▁아니겠지	-11.2621
쓱	-11.2622
가는거	-11.2622
그릇	-11.2623
▁무기력	-11.2624
서비스	-11.2624
냐며	-11.2625
▁개선	-11.2625
슥	-11.2627
▁나갔다	-11.2627
▁세탁	-11.2628
ms	-11.263
▁껌	-11.263
▁아빠는	-11.2633
▁지하철에서	-11.2633
지구	-11.2633
▁구역	-11.2634
▁없어졌	-11.2635
▁부르면	-11.2637
▁나오니까	-11.2641
▁소재를	-11.2641
▁얼스타그램	-11.2643
▁유니	-11.2643
싶어	-11.2643
▁클레	-11.2644
요ᄒᄒ	-11.2644
▁가끔은	-11.2645
▁버터맛	-11.2645
▁빵스타그램	-11.2646
▁하기로	-11.2647
걸음	-11.2648
▁차가운	-11.2652
▁양쪽	-11.2653
▁음식점	-11.2653
샹	-11.2655
▁검정	-11.2656
무섭	-11.2658
AN	-11.2659
재밌다	-11.2661
▁죽일	-11.2661
▁루나	-11.2663
▁치맥	-11.2664
▁옆집	-11.2664
▁렌	-11.2664
사이에	-11.2665
▁없었음	-11.2665
▁올림	-11.2665
▁관극	-11.2665
▁비참	-11.2666
편집	-11.2667
▁미련	-11.2667
▁팬티	-11.2669
▁생각하면서	-11.2669
▁nail	-11.267
고픈	-11.267
▁비용	-11.267
지않나요	-11.2671
▁애들아	-11.2672
▁확률	-11.2674
▁놀랐다	-11.2676
▁뛰고	-11.2676
▁탄산	-11.2677
해볼	-11.2677
리타	-11.2677
짠	-11.2678
블랑	-11.2679
mb	-11.2679
▁안아	-11.268
▁데려다	-11.2681
▁생각하며	-11.2681
썽	-11.2682
쨍	-11.2682
▁핑계	-11.2682
▁닉넴	-11.2682
▁자소서	-11.2686
부인	-11.2687
▁찾아온	-11.269
▁편의	-11.2691
▁비웃	-11.2693
▁살면	-11.2696
▁시대에	-11.2697
▁버린	-11.2699
▁안돼서	-11.27
▁따뜻하고	-11.27
▁도장	-11.2704
수있다	-11.2705
▁잣	-11.2706
▁각자의	-11.2706
▁사려고	-11.2707
▁행복을	-11.2708
▁어김없이	-11.2709
▁누누가	-11.2711
▁걸리는	-11.2713
단이	-11.2714
저러	-11.2714
▁되냐	-11.2715
▁씨피	-11.2716
▁이해를	-11.2716
스팅	-11.2717
▁바라보	-11.2717
▁유전	-11.2718
어어어	-11.272
대통령	-11.2721
▁런쥔이	-11.2721
▁동대문	-11.2722
도못	-11.2722
▁장편	-11.2723
▁형식	-11.2723
▁히트	-11.2724
▁왼	-11.2724
▁사람으로	-11.2724
리즘	-11.2725
▁적게	-11.2726
세대	-11.2728
▁올리브	-11.2728
du	-11.2731
▁뭐니	-11.2734
▁걸릴	-11.2735
▁이러지	-11.2735
▁단짠단짠	-11.2736
혁이	-11.2737
▁되었는데	-11.2737
▁괜찮지	-11.2738
하기만	-11.274
▁ml	-11.274
▁재수없	-11.2741
▁데일리그램	-11.2742
▁입히	-11.2743
있다고	-11.2745
하겟	-11.2745
선택	-11.2745
▁한가득	-11.2749
▁치우	-11.275
▁관계를	-11.2752
▁스파	-11.2752
섹	-11.2753
▁정글	-11.2753
▁남자들이	-11.2757
▁시리	-11.276
▁자려고	-11.276
▁세시간	-11.2761
▁성공한	-11.2761
▁안쓰	-11.2761
▁신남	-11.2762
▁이재	-11.2762
▁각성	-11.2763
▁나올때	-11.2763
▁배치	-11.2763
▁퀘스트	-11.2764
▁대단해	-11.2764
▁신호	-11.2765
▁마땅	-11.2765
▁순천	-11.2768
▁모자라	-11.2768
▁전세계	-11.2771
물에	-11.2772
▁샤브샤브	-11.2773
▁독립영화	-11.2773
하자면	-11.2775
▁고영이	-11.2775
▁행보	-11.2775
▁언젠간	-11.2776
▁양반	-11.2776
lu	-11.2776
산동	-11.2777
▁와이	-11.2777
해두	-11.2779
사러	-11.2779
안주	-11.2779
너무너무	-11.2779
▁봤을때	-11.278
▁부끄러워	-11.278
chi	-11.2784
▁태워	-11.2784
▁비하면	-11.2785
▁찔	-11.2785
▁안본	-11.2785
타입	-11.2786
하리	-11.2787
시스	-11.2787
▁오뎅	-11.2787
▁주인공의	-11.2788
▁내일이	-11.2788
▁깔고	-11.2789
홀릭	-11.2789
다르	-11.279
떴	-11.2792
세포	-11.2792
▁So	-11.2793
라노	-11.2796
▁저러고	-11.2797
▁있잖아요	-11.2801
▁애매	-11.2802
▁입원	-11.2805
▁세이	-11.2805
▁대가	-11.2806
재기	-11.2807
마요	-11.2807
천동	-11.2808
▁해주면	-11.2808
잃	-11.2809
▁담엔	-11.2809
▁한달에	-11.2812
▁볼수있	-11.2815
왔습니다	-11.2816
▁교정	-11.2817
란말	-11.2817
▁맛있었던	-11.2817
▁감격	-11.2818
▁si	-11.2821
▁점심시간	-11.2821
았으면	-11.2822
▁느꼈다	-11.2822
나갈	-11.2822
▁통과	-11.2823
▁욕구	-11.2824
풀이	-11.2824
▁인간들이	-11.2825
▁팁	-11.2826
▁사람이랑	-11.2827
사탕	-11.2828
▁시작되	-11.283
앞으로	-11.2832
▁두시	-11.2833
▁질러	-11.2833
wo	-11.2833
지옥	-11.2835
다행	-11.2835
▁ᅲᅲᅲᅲᅲᅲᅲᅲᅲᅲᅲ	-11.2835
▁ᄃᄃᄃ	-11.2836
▁이어서	-11.2836
▁개가	-11.2838
▁작곡	-11.2839
▁안사	-11.284
▁감자튀김	-11.284
ag	-11.284
▁아니라면	-11.2841
▁회색	-11.2841
▁여자를	-11.2843
▁폰으로	-11.2844
▁모레	-11.2846
▁까먹었	-11.2848
▁민역	-11.2848
▁소풍	-11.285
▁정책	-11.2851
▁무협	-11.2851
▁한마리	-11.2852
▁스프	-11.2852
▁떨어질	-11.2853
▁특수	-11.2853
▁파랑	-11.2857
▁히로	-11.2858
▁살게	-11.2858
▁분의	-11.2858
▁내취향	-11.2858
한테도	-11.286
ick	-11.2861
▁말입니다	-11.2861
▁다루	-11.2861
은행	-11.2862
▁조낸	-11.2863
▁팔찌	-11.2863
구성	-11.2864
졌음	-11.2864
▁만들어야	-11.2864
▁영원	-11.2864
▁웰	-11.2865
▁가위	-11.2865
▁시키고	-11.2865
▁연하	-11.2867
▁지쳐	-11.2867
▁뿔	-11.2868
▁디지	-11.287
페이지	-11.2871
min	-11.2872
미쳣	-11.2874
비는	-11.2874
▁재미없고	-11.2875
▁극단적	-11.2875
▁재밌었는데	-11.2877
▁작품성	-11.2878
▁인생에서	-11.2879
안남	-11.288
▁달려가	-11.288
맛있다	-11.2884
▁예산	-11.2884
▁플레이어	-11.2884
▁해바라기	-11.2885
민주	-11.2886
▁존나웃겨	-11.2888
엇던	-11.2889
▁걸고	-11.289
뷔페	-11.289
하거든요	-11.2894
루루	-11.2894
손으로	-11.2895
▁걸음	-11.2895
다닐	-11.2895
▁연재	-11.2895
▁완존	-11.2897
▁액정	-11.2897
▁아몬드브리즈	-11.2899
▁정치인	-11.2899
▁돌아왔다	-11.29
굿즈	-11.29
▁번이나	-11.2902
▁가까워	-11.2903
▁마이너스	-11.2903
▁우려	-11.2903
▁친구와	-11.2904
▁쓸쓸	-11.2904
▁알았네	-11.2906
▁점프	-11.2909
▁알려주세요	-11.291
▁재밋게	-11.291
if	-11.291
방지	-11.2911
텨	-11.2911
▁책장	-11.2914
▁참가	-11.2914
▁누리	-11.2915
▁시켜먹	-11.2915
▁떨어지고	-11.2916
프로젝트	-11.2916
▁액션영화	-11.2917
▁죽기	-11.2917
▁작품이다	-11.2917
▁구해	-11.2919
▁진상	-11.2919
할사람	-11.2919
▁몹시	-11.2919
▁공간이	-11.2921
▁압도적	-11.2922
안가	-11.2924
슝	-11.2926
▁고등어	-11.2926
▁나왔네	-11.2927
▁중간고사	-11.2927
▁클릭	-11.2928
▁후다닥	-11.2929
▁프리뷰	-11.2929
▁차니	-11.2929
▁가라앉	-11.2931
클리	-11.2933
스티커	-11.2934
▁와사비	-11.2934
ther	-11.2935
▁강력	-11.2935
▁맞은	-11.2936
하자고	-11.2936
머핀	-11.2938
▁리본	-11.2938
▁안해서	-11.294
▁구냥	-11.294
쬬	-11.294
여주	-11.2943
▁오진다	-11.2943
▁나이키	-11.2944
박이	-11.2945
▁해볼	-11.2946
닐	-11.2947
▁깨지	-11.2949
▁추천해주	-11.2949
할텐데	-11.2949
▁부추	-11.2949
▁쌩	-11.2952
▁썻	-11.2953
▁붙은	-11.2956
▁주말이	-11.2956
▁슬펐	-11.2956
▁starbucks	-11.2957
▁약을	-11.2957
▁직관	-11.2957
줄알고	-11.2959
▁불러서	-11.2959
대상	-11.2961
▁강사	-11.2961
설명	-11.2962
대여	-11.2962
▁보도	-11.2965
▁흥미롭	-11.2966
먹으면서	-11.2967
▁봐야할	-11.2967
▁롯데월드	-11.2968
▁경력	-11.2968
지말라고	-11.2969
▁작품은	-11.2969
▁대부분의	-11.297
▁떳	-11.297
▁타자	-11.2971
▁알았지	-11.2971
▁변호사	-11.2973
쓰면	-11.2973
▁강하게	-11.2974
▁않겠	-11.2975
싶어서	-11.2976
오픈	-11.2976
▁제자	-11.2977
▁ᄎ	-11.2977
▁상사	-11.2978
▁흉	-11.2978
▁가난	-11.2978
AL	-11.2979
말은	-11.298
▁고민을	-11.2981
핰	-11.2981
결과	-11.2982
▁질리	-11.2982
▁데일리푸드	-11.2983
▁압박	-11.2988
▁맞으면	-11.2989
ture	-11.299
▁좋으면	-11.299
부지	-11.2992
쳤는데	-11.2995
▁북미	-11.2996
▁애옹	-11.2998
www	-11.2998
킥	-11.3
끗	-11.3
성의	-11.3
해야되는데	-11.3003
▁응응	-11.3004
냐는	-11.3007
▁자지	-11.3008
▁놓치	-11.3009
▁펭귄	-11.3009
▁못하겠다	-11.3009
▁생각난	-11.301
르기	-11.301
▁아이린	-11.3011
▁하체	-11.3011
빤	-11.3012
▁일어나자마자	-11.3013
▁이렇게나	-11.3013
▁안맞는	-11.3014
▁저기서	-11.3014
여야	-11.3017
▁들어오면	-11.3018
▁넘치	-11.3019
ex	-11.302
체크	-11.302
포장	-11.3021
▁분들도	-11.3026
▁말려	-11.3026
▁You	-11.3027
pr	-11.3027
▁동인	-11.3028
점수	-11.3028
▁포토	-11.3028
book	-11.3029
▁선택한	-11.3033
▁화사	-11.3033
▁잔인	-11.3033
▁나빠	-11.3033
▁재밌었어요	-11.3033
▁부산에서	-11.3035
▁망해	-11.3035
예쁘다	-11.3036
▁오조오억	-11.3037
▁vscocam	-11.3037
gr	-11.3038
▁실친	-11.3039
▁않앗	-11.304
워드	-11.3041
▁붙잡	-11.3042
▁LA	-11.3043
▁근래	-11.3044
▁가시는	-11.3044
▁좋겠네	-11.3045
엌	-11.3047
▁나혼자	-11.3047
휴가	-11.3048
발견	-11.3049
법이	-11.3049
▁심플	-11.3051
▁보내준	-11.3052
오는데	-11.3053
▁거리가	-11.3054
uck	-11.3055
▁http	-11.3055
▁강렬	-11.3055
복이	-11.3056
플러	-11.3056
▁폭탄	-11.3056
▁작품들	-11.3057
▁엄지	-11.3059
▁위주로	-11.3061
▁오디	-11.3062
▁싫었	-11.3065
▁흐뭇	-11.3065
▁한번쯤	-11.3066
할까요	-11.3066
졌으면	-11.3067
▁사고싶다	-11.3068
셨군요	-11.3069
▁뒷계	-11.307
▁제안	-11.307
▁먹다	-11.307
▁모에화	-11.307
▁자러	-11.3071
▁결과물	-11.3072
▁가는거	-11.3074
사로	-11.3074
▁한두번	-11.3075
▁쓰면서	-11.3075
▁내친구	-11.308
▁하루도	-11.308
르트	-11.308
일텐데	-11.308
▁하기엔	-11.3082
받으	-11.3083
▁놀이터	-11.3083
▁어떡해요	-11.3084
라운지	-11.3085
▁추천받	-11.3087
할수도	-11.3088
짘	-11.3088
▁번에	-11.3088
▁속상해	-11.3088
▁바뀌었	-11.3089
▁주무시	-11.309
▁그립다	-11.3092
▁볼거리	-11.3093
▁브이로그	-11.3093
했으나	-11.3093
▁시날	-11.3093
▁공동	-11.3094
보는게	-11.3095
해야할	-11.3096
버드	-11.3097
잡이	-11.3097
▁흑인	-11.3098
▁교실	-11.31
▁구함	-11.31
▁끊기	-11.3101
▁후딱	-11.3102
▁무서움	-11.3102
▁미치겟	-11.3103
처먹	-11.3104
▁경험을	-11.3105
아무	-11.3105
연성	-11.3105
▁주위	-11.3109
▁어색하	-11.311
▁사랑할	-11.311
었구나	-11.3111
▁꿀잠	-11.3111
▁듣고싶	-11.3112
▁매력있	-11.3113
▁디스	-11.3114
▁윤아	-11.3114
▁아니죠	-11.3114
▁롤링	-11.3118
알고	-11.3118
▁우리에게	-11.3119
것같아서	-11.3119
사와	-11.312
▁마라샹궈	-11.312
▁블언블	-11.312
▁느낌이다	-11.3123
▁좃같	-11.3123
먹구	-11.3125
풋	-11.3128
▁보쌈	-11.3128
▁납치	-11.3128
▁팔로잉	-11.3128
▁스타일이	-11.3128
드려야	-11.3131
▁집어넣	-11.3131
▁갔더니	-11.3133
▁트윗에	-11.3134
▁목록	-11.3134
▁어딨	-11.3134
유치	-11.3135
▁디지털	-11.3135
단말	-11.3136
검색	-11.3138
▁예측	-11.3139
의원	-11.3139
프렌즈	-11.3139
덩어리	-11.3142
▁잡아서	-11.3143
▁잘생겼어	-11.3144
▁다행이에요	-11.3145
▁끓이	-11.3146
▁우리도	-11.3146
▁깨고	-11.3147
▁아랫	-11.3147
입어	-11.3148
▁쓰게	-11.3148
▁부인	-11.3149
▁감안	-11.3149
▁상자	-11.3149
fe	-11.315
▁뱅	-11.3151
▁숨겨	-11.3152
회의	-11.3152
▁별로다	-11.3153
▁생각나네	-11.3154
▁픽션	-11.3155
▁헉헉	-11.3156
▁들어갔는데	-11.3157
빠져	-11.3158
▁고른	-11.3159
▁제작비	-11.3159
모아	-11.316
드렸	-11.3161
▁단연	-11.3161
▁메갈	-11.3161
▁취향저격	-11.3163
▁어울릴	-11.3163
쪽에서	-11.3164
▁맡아	-11.3165
▁스피커	-11.3165
▁민폐	-11.3166
▁부탁해	-11.3166
▁코너	-11.3167
▁말하는거	-11.3168
▁전설의	-11.3169
아직도	-11.3169
▁많아지	-11.317
▁남자를	-11.3171
아니냐	-11.3171
▁같구	-11.3173
▁어이없	-11.3174
▁평점은	-11.3175
톰	-11.3175
ᴇ	-11.3177
▁착즙	-11.3177
오오오	-11.3179
▁이론	-11.3181
que	-11.3184
▁참아	-11.3184
▁시대를	-11.3185
▁너랑	-11.3186
▁마른	-11.3186
▁골든	-11.3187
▁혼나	-11.3187
▁개웃김	-11.3187
▁시팔	-11.3188
▁업어	-11.3189
말아	-11.3189
놈은	-11.3189
▁본가	-11.319
▁태연이	-11.3191
뒈	-11.3191
▁해산물	-11.3191
▁필요없는	-11.3192
없으면	-11.3192
▁미쳤나봐	-11.3193
▁있었네	-11.3193
야겠어	-11.3193
넘게	-11.3194
▁믹스	-11.3195
▁보습	-11.3195
▁남았는데	-11.3196
▁당신들	-11.3197
먹고싶어	-11.3197
▁짝사랑	-11.3198
랭이	-11.3199
▁오니	-11.32
을것	-11.32
▁술마시	-11.32
▁없어지	-11.3201
▁멍청이	-11.3201
▁눈물난다	-11.3201
▁청담	-11.3202
▁드라마는	-11.3203
▁오키나와	-11.3205
▁슬로건	-11.3205
▁희망을	-11.3207
을수록	-11.3208
펴	-11.3209
ᄐᄏ	-11.3211
▁남매	-11.3211
깜	-11.3211
▁늦어	-11.3212
▁짱구	-11.3212
▁안되겠	-11.3212
▁생리통	-11.3213
▁허세	-11.3213
▁보여준다	-11.3213
맛스타그램인스타푸드오늘뭐먹지	-11.3214
▁고치	-11.3216
시켰	-11.3216
▁개운	-11.3217
쳐먹	-11.3218
▁녹화	-11.3219
챈	-11.3219
▁휴무	-11.322
▁쑤	-11.322
겠읍니다	-11.322
▁보긴	-11.3221
▁읽다가	-11.3223
of	-11.3225
야겠	-11.3225
타로	-11.3225
▁종합	-11.3226
▁만들어준	-11.3228
▁간단	-11.3228
▁상처받	-11.323
▁혜화	-11.323
▁울림	-11.3231
▁싸우고	-11.3231
쁨	-11.3232
▁터키	-11.3233
▁꼭꼭	-11.3233
▁몬엑	-11.3234
▁이거보고	-11.3235
▁그것만	-11.3237
반지	-11.324
▁사진에	-11.324
▁어묵	-11.3242
▁뛰는	-11.3242
아이들	-11.3243
뿐이다	-11.3246
하군	-11.3246
▁단백질	-11.3247
샌	-11.3248
▁저녁을	-11.3249
▁쇠	-11.3249
권이	-11.325
▁생략	-11.325
ᄋᄉᄋ	-11.325
▁생겼는데	-11.325
▁천지	-11.3251
▁먼데	-11.3251
▁조연	-11.3252
ᄏᄐᄐ	-11.3253
문을	-11.3254
▁이러케	-11.3255
십다	-11.3255
교수님	-11.3256
▁쏟	-11.3258
▁설날	-11.3259
▁너에게	-11.326
▁지나갔	-11.326
중이에요	-11.3261
젝	-11.3262
훈이	-11.3262
▁반가운	-11.3263
생김	-11.3264
상관	-11.3264
▁실버	-11.3265
▁낀	-11.3265
야죠	-11.3265
▁연뮤	-11.3265
임에도	-11.3267
▁지인들	-11.3268
큐브	-11.3269
보이는데	-11.3269
▁평창	-11.3272
▁찍기	-11.3273
dy	-11.3273
감기	-11.3274
집을	-11.3275
▁영등포	-11.3276
▁대왕	-11.3277
▁쾌	-11.3277
▁하하하	-11.3278
기술	-11.3278
이랄까	-11.3279
▁잇고	-11.3279
▁키가	-11.3279
▁바질	-11.3279
▁원래는	-11.328
찜닭	-11.3281
재미없	-11.3281
▁그러네	-11.3283
▁첨부터	-11.3285
▁쫀	-11.3287
▁드는데	-11.3288
▁느낌은	-11.329
sn	-11.329
전주한옥마을	-11.329
골드	-11.329
▁캐리	-11.3291
▁폭염	-11.3293
늑	-11.3293
▁볼게	-11.3294
오늘은	-11.3294
▁찾다가	-11.3294
▁채로	-11.3295
▁사소한	-11.3296
▁따뜻하게	-11.3297
▁봇	-11.3298
▁맞네	-11.3299
인지도	-11.3299
▁등장하는	-11.3299
▁벌새	-11.33
▁와닿	-11.3301
king	-11.3301
▁하찮	-11.3302
거려서	-11.3303
▁어카지	-11.3305
▁백번	-11.3306
주년	-11.3306
▁초딩때	-11.3306
▁묘한	-11.3307
▁지는	-11.3307
▁근황	-11.3308
▁we	-11.3308
는걸로	-11.3308
린거	-11.3309
▁야간	-11.3309
▁기준이	-11.331
▁상해	-11.331
▁이십	-11.3312
나오고	-11.3314
▁조합이	-11.3316
▁이상은	-11.3317
묜	-11.3319
▁최신	-11.3319
하지말고	-11.332
터리	-11.332
시청	-11.3322
와라	-11.3322
▁서현	-11.3323
▁끝나서	-11.3323
▁나야	-11.3323
로움	-11.3323
▁자란	-11.3324
▁감튀	-11.3324
▁있었나	-11.3325
죽여	-11.3325
해주시면	-11.3326
▁그러다가	-11.3327
▁ᅦ	-11.3327
바퀴	-11.3329
▁못찾	-11.3331
oon	-11.3331
▁영화이다	-11.3332
타리	-11.3332
▁회지	-11.3334
▁사촌	-11.3336
사서	-11.3341
▁깊	-11.3341
▁이런식으로	-11.3342
솔직히	-11.3344
▁감옥	-11.3344
하겠	-11.3344
▁지난번에	-11.3345
bs	-11.3345
▁남자의	-11.3345
▁싸게	-11.3346
에게서	-11.3346
양파	-11.3346
▁올리기	-11.3347
▁확장	-11.3348
▁왜냐하면	-11.3348
수로	-11.3348
하신다	-11.3348
잇고	-11.3349
▁지루하지	-11.3352
▁아쉬웠	-11.3353
댓글	-11.3354
▁툭	-11.3354
▁생기고	-11.3355
▁두유	-11.3357
▁남산	-11.3357
▁엣	-11.3358
▁못했는데	-11.3358
▁루다	-11.3359
▁그때는	-11.336
갇	-11.3361
분식	-11.3361
어떡해	-11.3361
▁헐리우드	-11.3362
▁청포도	-11.3362
▁사랑해서	-11.3363
▁깼	-11.3363
▁막창	-11.3364
▁자연스러운	-11.3366
이군요	-11.3367
지안	-11.3369
놓을	-11.3371
보이고	-11.3372
복숭아	-11.3373
▁넉넉	-11.3376
▁존잘님	-11.3376
▁ᄀᄋᄀ	-11.3377
▁오잉	-11.338
▁소울	-11.3381
다님	-11.3384
주세용	-11.3384
올라가	-11.3385
▁햇다	-11.3385
▁치즈케이크	-11.3386
젖	-11.3386
드릴게	-11.3389
▁먹어요	-11.3391
▁태어났	-11.3391
▁키즈	-11.3392
MA	-11.3392
▁귀여운거	-11.3392
▁차에	-11.3395
▁쫑	-11.3395
▁곤란	-11.3397
▁CGV	-11.34
▁장관	-11.34
▁매트	-11.3401
▁초록색	-11.3402
▁포근	-11.3402
레시피	-11.3403
▁진심이	-11.3403
▁내한	-11.3405
▁유치하고	-11.3406
▁수호자	-11.3407
▁조리	-11.3407
▁면허	-11.3407
잇는거	-11.3408
▁거다	-11.3408
그레	-11.3408
▁두배	-11.3409
볼래	-11.3411
▁교류	-11.3412
▁진정성	-11.3412
성당	-11.3414
▁동갑	-11.3415
▁진지한	-11.3416
▁모두들	-11.3416
▁코리아	-11.3416
잇으면	-11.3418
▁무엇인지	-11.3418
▁버스에서	-11.3418
▁뭐하나	-11.3421
je	-11.3424
▁기분좋은	-11.3424
겟지만	-11.3425
고싶었는데	-11.3425
우기	-11.3427
막창	-11.3428
▁앉았	-11.3429
세럼	-11.3429
ᄐᄏᄏᄏᄏ	-11.343
전공	-11.3431
▁벽에	-11.3431
ies	-11.3431
남은	-11.3434
글라스	-11.3434
▁소환	-11.3434
여러분	-11.3434
▁지수니	-11.3435
▁관종	-11.3436
ft	-11.3436
리단길	-11.3436
▁밴	-11.344
▁다른사람	-11.344
▁다른건	-11.3441
▁액션도	-11.3443
▁열두시	-11.3443
▁제한	-11.3443
ᅦᅦ	-11.3444
▁박물관	-11.3444
분들은	-11.3445
강의	-11.3445
▁덴	-11.3446
▁스스로를	-11.3446
이잖아요	-11.3446
▁피어싱	-11.3447
▁진부한	-11.3447
▁본인의	-11.3447
▁파파	-11.3448
▁sns	-11.3448
▁거고	-11.3448
▁처벌	-11.3449
화장	-11.345
▁틀리	-11.3453
시킴	-11.3453
▁바이크	-11.3454
▁조용	-11.3454
▁고장	-11.3455
오랜만에	-11.3456
문이	-11.3458
▁때리고	-11.346
티라미수	-11.3461
ᅮᅮᅲ	-11.3461
윅	-11.3462
영어	-11.3462
▁오뉴블	-11.3463
▁선물을	-11.3463
▁거꾸로	-11.3463
환영	-11.3464
▁에코백	-11.3464
▁침묵	-11.3465
▁at	-11.3465
▁모음	-11.3466
▁트루	-11.3466
▁벙	-11.3466
신다면	-11.3466
잘어울	-11.3468
▁순한	-11.3468
센트	-11.347
아이스	-11.347
▁구속	-11.3472
▁오니까	-11.3474
▁거긴	-11.3474
▁막막	-11.3476
침대	-11.3477
▁끝냈	-11.3477
명을	-11.3479
▁딸이	-11.348
▁시작했는데	-11.3481
▁년차	-11.3481
▁리그램	-11.3485
▁우울한	-11.3486
캠프	-11.3487
▁이번주에	-11.3488
▁못생긴	-11.3489
▁느리	-11.349
ン	-11.3492
▁낮아	-11.3492
▁목걸이	-11.3492
▁내적	-11.3496
▁뭣	-11.3496
▁경험이	-11.3498
▁어렵지	-11.3499
▁고맙고	-11.3501
교환	-11.3502
▁내린	-11.3504
▁독서실	-11.3504
▁트친분들	-11.3506
▁결과가	-11.3506
▁있을거	-11.3507
풀어	-11.3508
함께	-11.3509
▁편해	-11.351
▁종대	-11.3511
▁해맑	-11.3511
ᅲᅮᅮᅲ	-11.3512
줄알았는데	-11.3513
▁ᄑ	-11.3513
▁전환	-11.3514
▁알았음	-11.3515
▁느와르	-11.3515
▁온천	-11.3516
거봐	-11.3519
▁움직여	-11.3521
느껴	-11.3521
똑	-11.3521
해주실	-11.3521
▁뭉클	-11.3523
▁기쁜	-11.3524
▁없엇	-11.3524
수밖에	-11.3524
항공	-11.3526
▁어린이날	-11.3527
늦	-11.3527
▁못하면	-11.3527
리치	-11.3529
▁알파	-11.3529
▁식욕	-11.353
먼트	-11.353
▁개뿔	-11.3531
▁상하	-11.3532
▁고양	-11.3534
▁책스타그램	-11.3535
▁헷갈리	-11.3535
▁쓰다듬	-11.3535
놀아	-11.3537
▁국립	-11.3537
▁차리	-11.3538
▁느낌인데	-11.3538
▁느껴져서	-11.3539
ᄃᄃᄃ	-11.354
▁접수	-11.354
▁추위	-11.3541
획	-11.3541
했던거	-11.3543
▁뵈	-11.3544
▁피우	-11.3546
적이지	-11.3549
인물	-11.3549
샬	-11.355
▁축복	-11.355
▁입었	-11.3551
▁남자애	-11.3552
ᄏᄀᄏᄀ	-11.3553
으실	-11.3555
키로	-11.3556
ᄒᄒᄒᄒᄒᄒᄒᄒ	-11.3556
아쉽	-11.3557
▁리치	-11.3558
▁소재는	-11.3558
▁만화책	-11.3559
체리	-11.356
덕이	-11.356
▁시켜서	-11.3563
테이션	-11.3564
▁저예산	-11.3565
▁공무원	-11.3565
나비	-11.3566
▁반쯤	-11.3567
▁미녀	-11.3568
▁토욜	-11.3568
힘들	-11.357
▁드래곤	-11.3572
▁배경으로	-11.3572
▁누르면	-11.3573
▁밝히	-11.3573
▁침대에서	-11.3575
▁취직	-11.3576
▁스트레칭	-11.358
▁작작	-11.358
▁영화화	-11.358
재밌게	-11.3581
해장국	-11.3581
▁오른	-11.3585
▁feat	-11.3585
▁맥스	-11.3585
▁없었고	-11.3586
▁자정	-11.3587
▁커플링	-11.3588
▁계정이	-11.3591
▁누군가의	-11.3593
▁레즈비언	-11.3594
사용	-11.3595
▁아부지	-11.3595
▁전반적으로	-11.3596
▁못보	-11.3597
▁망했다	-11.3597
▁sa	-11.3598
ᄂᄂ	-11.3603
마가	-11.3603
신발	-11.3604
말라	-11.3605
▁밀고	-11.3605
다녔	-11.3605
▁꾸미	-11.3605
▁미아	-11.3606
▁생일축하해	-11.3606
플레이스	-11.3607
캡	-11.3607
▁집은	-11.3608
▁찾아오	-11.3609
웬	-11.3609
졸라	-11.3609
▁팍	-11.3609
▁멘붕	-11.3609
역에	-11.3611
▁곁에	-11.3611
상품	-11.3611
▁기울	-11.3612
▁나같은	-11.3613
▁분도	-11.3613
주는거	-11.3615
▁올랐	-11.3617
꼬리	-11.3619
▁물려	-11.362
▁화를	-11.362
▁마스크팩	-11.3621
▁옵치	-11.3621
어지는	-11.3622
▁머거	-11.3624
▁톡톡	-11.3624
▁아저씨가	-11.3627
ster	-11.3628
식사	-11.3628
▁부어	-11.3629
▁긍	-11.3629
▁친절한	-11.3629
▁머릿속에	-11.3629
▁분만	-11.363
▁허미	-11.3632
▁막아	-11.3633
▁불러주	-11.3633
▁면이	-11.3634
꼽	-11.3634
적은	-11.3636
▁퀴즈	-11.3636
▁다행이야	-11.3636
▁무너	-11.3636
▁심각하게	-11.3636
브로	-11.3637
▁달이	-11.3638
▁매진	-11.3638
▁대하여	-11.3639
렷다	-11.3639
근육	-11.3639
▁응원해	-11.364
▁무식	-11.3644
올게요	-11.3645
▁가기로	-11.3645
챙	-11.3645
▁이러다가	-11.3645
▁트젠	-11.3645
▁깜놀	-11.3646
맘에	-11.3646
▁장발	-11.3646
▁입문	-11.3646
햇지만	-11.3646
▁인상깊	-11.3648
▁마포	-11.3649
▁녹차맛	-11.3649
홉	-11.365
▁나에겐	-11.3651
▁물이	-11.3651
브이	-11.3652
일을	-11.3653
▁꽂아	-11.3653
▁하시면	-11.3653
▁빡빡	-11.3654
ᄏᄏᄏ큐ᅲᅲᅲ	-11.3655
▁지난번	-11.3655
▁베어	-11.3656
▁씨네	-11.3657
▁발바닥	-11.3657
시바	-11.3657
합니까	-11.3658
▁적극	-11.3659
▁당황스럽	-11.3659
▁공부하고	-11.3659
▁유용	-11.366
▁춤을	-11.366
▁편안한	-11.3661
▁주님	-11.3662
혹시	-11.3662
▁소프트	-11.3662
▁특별히	-11.3663
▁유저	-11.3663
▁운동하고	-11.3664
었으니	-11.3665
▁그렇구나	-11.3665
▁달러	-11.3666
자세	-11.3667
스무디	-11.3669
▁하이라이트	-11.367
▁얻을	-11.367
tter	-11.367
도넛	-11.367
햇네	-11.3672
▁데일리룩	-11.3672
▁물티슈	-11.3673
상은	-11.3673
▁융	-11.3674
▁개의	-11.3674
▁애매하	-11.3675
▁드럼	-11.3675
love	-11.3677
▁웨이	-11.368
▁역사를	-11.3681
▁다가오는	-11.3681
▁알게된	-11.3681
보쌈	-11.3681
빳	-11.3683
▁간신히	-11.3683
▁괜찬	-11.3684
▁시인	-11.3685
▁용량	-11.3688
▁찌르	-11.3688
사이트	-11.3688
▁ver	-11.3688
▁속보	-11.3689
▁힘든데	-11.3689
갠	-11.369
▁나온다고	-11.3692
pet	-11.3694
▁인공	-11.3694
▁허접한	-11.3694
▁거라는	-11.3694
▁먹었어	-11.3694
▁넘모	-11.3697
거아님	-11.3697
▁캡틴	-11.3698
▁평점에	-11.3698
흙	-11.3699
파일	-11.37
▁돕	-11.3701
▁광장	-11.3701
▁죽으면	-11.3702
▁무비스타그램	-11.3702
나왓	-11.3704
▁근본	-11.3705
▁목에	-11.3706
▁목격	-11.3707
답답	-11.3709
웩	-11.3709
자체가	-11.3709
처돌이	-11.371
부자	-11.371
▁개잘	-11.3711
▁겉은	-11.3711
씁니다	-11.3712
나물	-11.3713
▁아닙니까	-11.3713
▁이르	-11.3715
▁동양	-11.3717
▁이중	-11.3718
충이	-11.3718
화이트	-11.3718
▁도넛	-11.3722
▁배경이	-11.3723
▁요즘엔	-11.3723
▁두가지	-11.3723
▁정확한	-11.3724
▁무슨일	-11.3725
▁존나게	-11.3726
▁선배님	-11.3727
▁완죤	-11.3728
유진	-11.3728
▁경우는	-11.3728
무라	-11.3728
▁멀쩡	-11.3729
▁호다닥	-11.3729
▁소리지르	-11.3732
▁좋겠음	-11.3733
▁초등	-11.3733
▁넘어가는	-11.3733
▁피어	-11.3734
▁막히	-11.3734
▁바게트	-11.3736
ᅮᅳᅮ	-11.3736
선거	-11.3737
▁필링	-11.3737
▁시간만	-11.374
▁제게	-11.374
못한	-11.3741
▁있던데	-11.3742
▁안티	-11.3742
▁오케	-11.3742
ity	-11.3744
▁퍼센트	-11.3746
▁손바닥	-11.3747
▁누군가가	-11.3748
▁투쟁	-11.3749
마사지	-11.375
프링	-11.375
▁인간적으로	-11.375
mp	-11.375
▁심란	-11.3751
▁화분	-11.3752
옮	-11.3753
▁앨범을	-11.3754
▁안다	-11.3754
▁저희집	-11.3754
터치	-11.3754
일러	-11.3754
나인	-11.3755
▁즐겁	-11.3755
▁이사진	-11.3755
▁토할	-11.3755
▁여름엔	-11.3756
케잌	-11.3756
중국	-11.3757
▁꺾	-11.3757
▁눈동자	-11.3758
▁오지는	-11.3759
군아	-11.3761
주실	-11.3761
▁깔끔하고	-11.3761
식스	-11.3762
▁주먹밥	-11.3763
▁몇시간	-11.3764
▁근대	-11.3765
▁왔으면	-11.3765
▁개학	-11.3767
▁있었을	-11.3768
▁초면	-11.3768
▁하고싶어	-11.3771
▁어젯밤	-11.3771
▁상암	-11.3771
▁국민들	-11.3772
▁잦	-11.3772
▁일종의	-11.3773
▁아시는분	-11.3773
ᄂ데	-11.3774
▁창조	-11.3774
▁카페가	-11.3774
▁부대찌개	-11.3775
▁들어주	-11.3775
▁시킬	-11.3776
으로부터	-11.3777
▁관점	-11.3777
▁돌아갈	-11.3778
▁살려주세요	-11.3779
▁타로	-11.3779
디아	-11.378
달래	-11.3782
생긴	-11.3784
▁안겨	-11.3785
▁영감	-11.3785
▁현실성	-11.3785
▁하우스	-11.3786
▁못알아	-11.3787
줬음	-11.3788
장으로	-11.379
cafe	-11.379
자극	-11.3791
▁Love	-11.3791
▁질문을	-11.3792
잔치	-11.3792
▁당당하게	-11.3794
▁빡치는	-11.3794
살인	-11.3799
▁다니면서	-11.3799
▁시그	-11.3801
▁불토	-11.3801
형님	-11.3802
▁창피	-11.3802
쪘	-11.3802
좋겠다	-11.3802
▁키드	-11.3803
▁쌍둥이	-11.3803
▁배틀	-11.3803
▁캡	-11.3805
▁않네	-11.3805
범벅	-11.3805
▁베란다	-11.3806
▁쩜	-11.3806
▁백퍼	-11.3806
▁주말엔	-11.3807
▁쓰다가	-11.3809
▁깬	-11.3812
놔야	-11.3812
뿐이야	-11.3813
▁와꾸	-11.3816
▁편하고	-11.3816
▁게스트	-11.3816
▁두려움	-11.3817
마마	-11.3818
앰	-11.3818
▁올려서	-11.3819
쉐이크	-11.382
▁원샷	-11.3822
자켓	-11.3823
ᅮᅲᅲ	-11.3825
▁오너	-11.3825
우울	-11.3825
미나	-11.3828
▁정장	-11.383
캄	-11.383
▁액션이	-11.3831
ᄏᄏᄀᄏ	-11.3831
▁뱃살	-11.3832
▁잠들었	-11.3832
스퀘어	-11.3832
▁유기농	-11.3832
▁시트콤	-11.3833
생각나	-11.3834
▁군데	-11.3834
▁나네요	-11.3835
▁읽었는데	-11.3837
라벨	-11.3838
▁울음	-11.3838
rr	-11.384
하고있	-11.3841
▁못봤	-11.3841
화된	-11.3842
ᄍᄍ	-11.3843
▁거부감	-11.3844
▁누웠	-11.3844
킵	-11.3844
다음에	-11.3844
▁체감	-11.3846
▁응원합니다	-11.3849
공감	-11.3849
▁미래를	-11.385
▁일러스트	-11.3851
삼겹	-11.3851
▁이시간에	-11.3851
▁안하는데	-11.3851
런지	-11.3852
▁사용할	-11.3852
되나	-11.3852
▁나아지	-11.3852
▁답답한	-11.3853
▁피규어	-11.3853
▁박힌	-11.3853
심을	-11.3854
수정	-11.3854
▁쉴드	-11.3855
▁지뢰	-11.3855
상영	-11.3855
ᅲᅲᅲᅲᅲᅲᅲᅲᅲᅲᅲᅲᅲᅲ	-11.3858
대가리	-11.3859
▁미카	-11.3859
하시네요	-11.3859
▁지름	-11.386
▁귀엽다고	-11.3862
헝	-11.3862
▁유해	-11.3862
돠	-11.3862
▁넣어주	-11.3862
▁고무	-11.3862
잇을	-11.3863
fit	-11.3864
등심	-11.3865
▁좋아요그램	-11.3865
대에	-11.3866
you	-11.3866
질문	-11.3866
▁시간낭비	-11.3866
▁잠든	-11.3867
▁피치	-11.3867
▁틀고	-11.3867
▁누나가	-11.3867
▁단체로	-11.3868
▁부분에서	-11.3871
▁않았으면	-11.3873
▁쩌는	-11.3873
닼	-11.3874
▁수십	-11.3875
▁진작	-11.3875
▁서로를	-11.3876
담배	-11.3876
ix	-11.3876
▁최악이다	-11.3878
▁mm	-11.3878
▁장면을	-11.3879
▁참신	-11.3879
▁제인	-11.3879
▁강슬기	-11.388
과함께	-11.388
▁체력이	-11.3881
▁해준다	-11.3881
저렇게	-11.3881
▁주인공은	-11.3882
▁하고있	-11.3882
▁얻는	-11.3883
▁퍼즐	-11.3883
참고	-11.3884
키트	-11.3884
▁남동생	-11.3885
▁팔고	-11.3885
아프다	-11.3886
먹지	-11.3886
▁원두	-11.3886
▁해봤	-11.3887
▁합의	-11.3887
▁납	-11.3888
되네요	-11.3888
▁임시	-11.3889
중앙	-11.3889
▁말걸	-11.3889
▁시작할	-11.3891
▁소재가	-11.3892
▁개이득	-11.3893
▁배경화면	-11.3893
▁부족하다	-11.3894
▁좋죠	-11.3894
와인	-11.3895
▁엑스맨	-11.3895
이래요	-11.3895
ᄀᄀ	-11.3896
▁신생아	-11.3896
▁아침은	-11.3896
▁보람	-11.3896
센스	-11.39
▁쎈	-11.3901
대교	-11.3901
▁박아	-11.3902
▁여유가	-11.3902
스러웠	-11.3903
▁하다니	-11.3904
슈가	-11.3906
▁행복하고	-11.3906
▁전신	-11.3906
▁감사해	-11.3907
씽	-11.3907
▁유정	-11.3907
할걸	-11.3909
▁생각해보	-11.391
▁주어	-11.391
▁선언	-11.391
팁	-11.3911
버블	-11.3914
▁텐션	-11.3914
▁sp	-11.3914
▁엓	-11.3915
▁몰랐던	-11.3915
트는	-11.3916
▁인터	-11.3917
▁다녀와	-11.3918
▁다운받아	-11.3921
▁세시	-11.3922
▁빡세게	-11.3922
▁선크림	-11.3923
줄알앗	-11.3923
Sh	-11.3924
▁변명	-11.3925
▁보기에	-11.3926
▁퍼먹	-11.393
로션	-11.3931
ja	-11.3932
전주신시가지	-11.3933
▁찍었다	-11.3934
va	-11.3935
해달라고	-11.3936
▁놀라서	-11.3936
▁외면	-11.3936
▁탐라가	-11.3937
▁페미니스트	-11.3938
▁고화질	-11.3938
▁쏠	-11.3939
하기가	-11.3939
고있어	-11.394
그릴	-11.394
말로	-11.3942
해봤는데	-11.3943
에게도	-11.3945
▁물러	-11.3947
si	-11.3947
▁부들부들	-11.3947
한사람	-11.3947
▁단어를	-11.3948
▁알수	-11.3948
▁낮아서	-11.3951
ace	-11.3951
보려	-11.3952
야끼	-11.3952
▁올라와서	-11.3953
룻	-11.3953
▁뒷모습	-11.3955
▁짐살라빔	-11.3956
▁여러개	-11.3957
▁풍미	-11.3958
▁소매	-11.3959
레기	-11.3959
▁맛에	-11.3961
▁그랬던	-11.3962
NA	-11.3962
▁중심으로	-11.3963
▁챙겨주	-11.3965
롭게	-11.3967
이어도	-11.3968
▁줘서	-11.3968
탬	-11.3968
▁아름다워	-11.3968
▁할리우드	-11.3968
▁틀어놓고	-11.397
였는지	-11.397
▁쫙	-11.397
▁얌전히	-11.3972
이모	-11.3972
▁핸드	-11.3974
덱	-11.3974
▁he	-11.3975
▁단맛	-11.3976
포토	-11.3976
▁가격도	-11.3977
패치	-11.3978
▁나와야	-11.3979
롱이	-11.398
음식푸드스타그램먹둥밍	-11.398
▁션	-11.3981
▁미용	-11.3982
해봄	-11.3982
▁쪼금	-11.3982
▁됴	-11.3982
인권	-11.3982
▁안되면	-11.3983
만남	-11.3984
▁신림	-11.3986
마스크	-11.3986
▁무료로	-11.3986
블럭	-11.3987
팩트	-11.3988
신지	-11.3988
▁막판에	-11.3989
▁먹었어요	-11.399
중입니다	-11.399
개그	-11.399
▁볼거	-11.399
▁군산	-11.3991
광장	-11.3992
주새요	-11.3993
갈때마다	-11.3996
이겠지	-11.3996
귀여	-11.3997
▁seoul	-11.3997
▁달님이	-11.3997
▁날도	-11.3998
욬ᄏᄏᄏᄏᄏᄏ	-11.3998
뫄	-11.3999
▁복잡한	-11.4001
매운	-11.4001
구름	-11.4001
tu	-11.4001
▁탈색	-11.4002
먹을까	-11.4002
▁보실	-11.4002
▁아쉽네요	-11.4003
▁민감	-11.4003
▁당하는	-11.4004
꽂	-11.4005
▁맞춤	-11.4006
깅이	-11.4007
▁개구리	-11.4007
빡쳐	-11.4008
▁불쌍해	-11.4008
▁맛있당	-11.401
▁벗겨	-11.401
▁양산	-11.401
ple	-11.4011
▁ᅢ	-11.4011
하핳	-11.4011
▁닭강정	-11.4011
사람들은	-11.4012
▁바닷가	-11.4014
▁에버랜드	-11.4014
▁파란색	-11.4015
▁웃겨요	-11.4016
날에	-11.4017
▁어디든	-11.4018
▁참나	-11.4019
▁기억하고	-11.4019
▁초보	-11.4019
▁끄고	-11.402
▁판교	-11.402
마스터	-11.4022
▁감사하고	-11.4023
스러울	-11.4023
만하면	-11.4024
wi	-11.4024
▁에릭	-11.4027
▁재난	-11.4028
댁	-11.4028
▁영화중에	-11.4029
무늬	-11.4029
▁연차	-11.4031
▁개를	-11.4033
▁초콜렛	-11.4034
▁자두	-11.4037
▁개성	-11.404
▁낙서	-11.404
▁들어가고	-11.4041
▁본질	-11.4042
▁관심없	-11.4043
red	-11.4043
▁러닝타임	-11.4046
회장	-11.4046
▁방에서	-11.4046
뭔데	-11.4047
▁층에	-11.4048
▁Ho	-11.4049
엣	-11.4049
▁꼬라지	-11.4051
운다	-11.4051
마셔	-11.4054
▁알기	-11.4055
하셔야	-11.4055
▁타서	-11.4056
▁적도	-11.4058
▁빌어	-11.4059
▁할머니가	-11.406
▁트이타	-11.4061
▁De	-11.4062
▁정보를	-11.4064
▁땡겨서	-11.4064
▁필요없다	-11.4065
▁돌리는	-11.4066
cc	-11.4066
▁꽃을	-11.4066
▁미쳣다	-11.4066
갔어	-11.4067
▁크로	-11.4068
하는건지	-11.4068
▁ro	-11.4072
▁tr	-11.4072
▁안보여	-11.4073
▁대강	-11.4074
▁답멘	-11.4075
딤	-11.4076
▁않았나	-11.4076
▁바탕으로	-11.4076
▁정정	-11.4076
▁둘은	-11.4077
▁거대	-11.4082
멤	-11.4082
▁밤샘	-11.4085
판을	-11.4086
▁읍	-11.4086
스러	-11.4087
이면서	-11.409
어리	-11.409
틀어	-11.409
입장	-11.409
헣	-11.4091
▁환절기	-11.4091
▁멸망	-11.4091
▁속눈썹	-11.4092
▁목포	-11.4092
경찰	-11.4094
▁본방	-11.4094
▁태우	-11.4096
▁선글라스	-11.4096
리코	-11.4097
▁주기적으로	-11.4097
▁복지	-11.4097
헉	-11.4097
컨셉	-11.4099
▁준비해	-11.4099
▁찍어준	-11.41
park	-11.4102
▁자극적인	-11.4103
▁유연	-11.4104
▁배드	-11.4104
뭇	-11.4106
▁시크릿	-11.4106
▁과정이	-11.4106
▁후드	-11.4107
▁괜	-11.4107
엿어	-11.4109
비언	-11.4109
법한	-11.411
수다	-11.4111
자매	-11.4111
제과	-11.4112
뚫	-11.4113
했다면	-11.4114
▁사이다	-11.4116
▁봉지	-11.4117
▁아니어도	-11.4117
▁헌법	-11.4117
▁포스트	-11.4117
빵이	-11.4117
아녀	-11.4119
▁토익	-11.412
ran	-11.412
야할지	-11.4121
▁롯	-11.4123
장미	-11.4124
▁바비	-11.4124
▁발레	-11.4125
▁괜찮다고	-11.4125
▁지연	-11.4127
본적이	-11.4128
▁자격	-11.4129
▁그레	-11.4129
끌고	-11.4129
놈들이	-11.413
▁일등	-11.413
▁아근데	-11.4131
▁되었어요	-11.4132
것임	-11.4133
ink	-11.4136
lt	-11.4138
쏭	-11.4138
후보	-11.4139
실화	-11.4139
▁더운데	-11.4139
▁종인	-11.4139
▁먹으니까	-11.414
▁맞춘	-11.414
▁음악도	-11.414
단어	-11.4141
하고잇	-11.4141
▁아세요	-11.4142
넘어	-11.4143
▁대고	-11.4144
▁설득	-11.4145
잔다	-11.4146
▁왜그러	-11.4146
할수록	-11.4147
▁의문이	-11.4151
▁맛있네	-11.4151
▁분들께	-11.4152
▁킬링타임용	-11.4152
▁잉크	-11.4153
밸	-11.4153
▁아카	-11.4154
▁심심해	-11.4156
페미	-11.4156
큐ᅲᅲᅲ	-11.4156
▁성질	-11.4161
▁뻘	-11.4161
부분이	-11.4161
관에서	-11.4163
▁행복했던	-11.4163
▁사는게	-11.4163
▁홈마	-11.4163
▁준비한	-11.4164
▁이해하기	-11.4164
른다	-11.4165
▁나왔어요	-11.4165
▁기저귀	-11.4165
▁세우	-11.4167
비빔	-11.4168
▁트라우마	-11.4169
돌아가	-11.4169
▁이것만	-11.4169
▁최선	-11.417
▁요건	-11.4171
▁라이딩	-11.4172
▁갈릭	-11.4174
하셔	-11.4175
하는사람	-11.4175
추워	-11.4177
같은건	-11.4178
▁보물	-11.4179
▁회전	-11.418
▁선동	-11.418
햇으면	-11.418
함은	-11.4181
▁저새끼	-11.4182
▁달력	-11.4183
▁죽어라	-11.4183
멘트	-11.4183
▁술이	-11.4183
위원장	-11.4184
▁지예샘	-11.4184
▁못생겼	-11.4184
좃	-11.4184
▁긱사	-11.4184
▁가디건	-11.4184
▁진보	-11.4185
▁공감이	-11.4185
▁해봤는데	-11.4185
리조또	-11.4185
줘도	-11.4186
▁고집	-11.4186
▁해달라고	-11.4187
▁책으로	-11.4187
pc	-11.4187
▁기대했는데	-11.4187
▁눌	-11.4188
▁배불러	-11.4188
▁간단히	-11.4189
▁김동	-11.419
▁힘들었다	-11.419
많아서	-11.419
▁탈모	-11.4191
▁수트	-11.4191
▁죽었다	-11.4193
▁최애가	-11.4193
▁잘만든	-11.4193
뱀	-11.4193
IP	-11.4193
것같애	-11.4195
▁사랑둥이	-11.4195
▁좋았지만	-11.4196
단말야	-11.4196
▁너므	-11.4197
▁다듬	-11.4198
보기로	-11.4198
▁상식	-11.4199
▁글은	-11.4199
간장	-11.4199
▁피곤하다	-11.42
맛있다그램	-11.42
▁사랑한	-11.4201
봉이	-11.4203
못함	-11.4205
▁갔어	-11.4205
오르는	-11.4206
▁지금봐도	-11.4206
▁걸까요	-11.4207
돼요	-11.4208
▁ᅩ	-11.4209
편의점	-11.421
▁일베	-11.4212
미소	-11.4212
랫는데	-11.4213
▁터진	-11.4214
▁에어프라이어	-11.4215
▁이쁨	-11.4215
나마	-11.4216
▁이한결	-11.4216
▁제이슨	-11.4219
▁도무지	-11.422
▁조정	-11.422
▁찹쌀	-11.4221
▁강렬한	-11.4221
▁애미	-11.4223
▁코난이	-11.4223
▁야자	-11.4224
▁밥상	-11.4225
▁너구리	-11.4226
▁ex	-11.4227
▁설정이	-11.4227
나간	-11.4228
보통	-11.4229
국제	-11.423
뮬	-11.4231
▁체육	-11.4231
▁각도	-11.4232
▁홈페이지	-11.4232
멜로	-11.4232
▁떨어진다	-11.4232
▁옷장	-11.4232
주머니	-11.4232
하곤	-11.4233
▁사는데	-11.4235
▁사나	-11.4235
▁하늘을	-11.4235
▁일곱	-11.4236
모야	-11.4236
▁스무살	-11.4236
▁설계	-11.4237
▁현실적인	-11.4237
많고	-11.4238
▁삼일	-11.424
▁귀염	-11.4241
▁없죠	-11.4241
▁물어보고	-11.4241
▁주름	-11.4243
▁난이도	-11.4243
자유	-11.4244
▁붙어서	-11.4245
▁뺀	-11.4245
▁인원	-11.4246
▁괴담	-11.4247
▁서귀포	-11.4247
▁쁘띠	-11.4247
▁쫀쫀	-11.4247
▁말았	-11.4247
▁사지	-11.4248
롭다	-11.4249
▁팝업	-11.4251
▁그린티	-11.4254
캬캬	-11.4255
▁비틀	-11.4255
회를	-11.4261
▁살때	-11.4261
플리	-11.4262
▁분위기도	-11.4262
▁아프리카	-11.4263
짓거리	-11.4264
▁재밋는	-11.4264
다방	-11.4265
▁데가	-11.4265
▁쓸어	-11.4265
▁산업	-11.4266
▁서브	-11.4266
▁저렴	-11.4267
▁어필	-11.4267
▁삼천	-11.4268
미용실	-11.4273
▁재판	-11.4273
▁삘	-11.4273
끝까지	-11.4274
겼다	-11.4274
애들은	-11.4274
▁집안일	-11.4274
ka	-11.4276
▁절로	-11.4278
pizza	-11.4278
▁손테진	-11.4278
아울렛	-11.4279
▁듣다가	-11.4279
▁아라	-11.428
ᄏ큐ᅲ	-11.428
▁충격적이	-11.4282
▁길어서	-11.4283
▁지치	-11.4283
▁사찬	-11.4283
될지	-11.4284
▁허묵	-11.4286
▁조심히	-11.4287
▁소중	-11.4288
질을	-11.4288
san	-11.429
▁학습	-11.429
증이	-11.429
▁않았어	-11.4291
방식	-11.4292
▁많았다	-11.4292
숏	-11.4294
뤘	-11.4294
▁귀염둥이	-11.4294
▁어려	-11.4296
▁돌돌	-11.4296
▁그럼요	-11.4296
▁웬디	-11.4296
▁맞어	-11.4298
▁신기하고	-11.4299
▁한적	-11.43
▁까페	-11.4302
▁머리색	-11.4303
▁너머	-11.4305
▁안되네	-11.4306
▁마지막까지	-11.4306
▁짜장	-11.4306
▁보내세요	-11.4306
▁고딩때	-11.4306
툴	-11.4306
▁프레임	-11.4307
▁관계가	-11.4308
있다가	-11.4308
▁누구도	-11.4308
웜	-11.431
▁디비진다	-11.4311
놈의	-11.4312
▁배우의	-11.4312
▁클래스	-11.4312
▁한정판	-11.4314
▁협박	-11.4315
린다고	-11.4316
판매	-11.4317
바늘	-11.4318
해주시는	-11.4318
▁바꿔야	-11.4318
▁이상형	-11.4319
▁들으	-11.4319
▁증상	-11.432
베개	-11.4322
▁졸린	-11.4322
▁대략	-11.4322
▁업서	-11.4323
▁세탁기	-11.4323
▁너무웃겨	-11.4324
섹슈얼	-11.4325
▁명작이다	-11.4327
▁한번은	-11.4328
▁박수를	-11.4329
▁그러는데	-11.4329
▁샌	-11.433
버그	-11.433
▁따르	-11.4333
▁아가리	-11.4334
레오	-11.4335
▁살림	-11.4335
오기	-11.4335
▁단추	-11.4337
귀여움	-11.4338
▁주변에서	-11.4339
▁피방	-11.434
깁	-11.434
수없	-11.4341
▁징징	-11.4341
▁공짜로	-11.4342
▁아니었어	-11.4342
▁남포동	-11.4342
▁일로	-11.4342
▁주문한	-11.4342
▁비누	-11.4343
기라도	-11.4343
▁dailyfood	-11.4344
▁전해	-11.4347
▁집들이	-11.4348
▁사라지는	-11.4348
▁답을	-11.4349
▁담고	-11.4349
▁댈	-11.4351
▁치유	-11.4351
반점	-11.4352
▁유비	-11.4353
▁테라스	-11.4353
게되는	-11.4353
인다	-11.4353
▁짜증이	-11.4354
▁많이들	-11.4354
햇다고	-11.4355
▁싸워	-11.4356
쓴다	-11.4356
상의	-11.4356
낌	-11.4356
령이	-11.4356
소가	-11.4356
▁좁은	-11.4357
▁안먹어	-11.4359
알려	-11.4359
▁가족여행	-11.436
▁구워먹	-11.436
허니	-11.436
▁아름답	-11.4368
막혀	-11.4368
▁시작부터	-11.437
▁망상	-11.4371
계를	-11.4371
▁온통	-11.4373
▁구구절절	-11.4373
▁올라가서	-11.4373
▁최예나	-11.4373
▁익숙하	-11.4375
▁섭취	-11.4375
본거	-11.4375
▁이놈	-11.4376
▁갠찬	-11.4376
▁인간을	-11.4376
▁인기가	-11.4377
하고자	-11.438
▁덩어리	-11.4381
▁장수	-11.4381
The	-11.4383
코미디	-11.4384
안대	-11.4386
▁입으면	-11.4386
▁말해주	-11.4386
없나	-11.4386
결국	-11.4388
읏	-11.4389
eo	-11.4389
▁처돌	-11.4392
▁것이고	-11.4392
다닐때	-11.4392
▁병원에서	-11.4392
▁가든	-11.4393
▁중에서도	-11.4394
▁깨알	-11.4394
▁스위스	-11.4394
하셨다	-11.4395
▁경우도	-11.4395
멋있	-11.4397
등록	-11.4399
▁금요일에	-11.4399
떳	-11.4401
▁토스	-11.4402
▁불편해	-11.4402
▁돌려서	-11.4404
iv	-11.4405
▁안타까운	-11.4405
보라고	-11.4405
▁미국에서	-11.4406
▁무섭고	-11.4406
트릭	-11.4407
▁즐겁고	-11.4407
정치	-11.4407
섰	-11.4407
▁갈색	-11.4407
만드	-11.4408
▁추첨	-11.4408
▁분을	-11.4408
▁쯔	-11.4408
지는거	-11.4408
▁있냐고	-11.441
▁위하여	-11.4411
눈이	-11.4411
볼때	-11.4411
맞음	-11.4411
▁우상	-11.4411
에여	-11.4412
ᅲᅮᅲᅮ	-11.4414
▁세명	-11.4414
▁득	-11.4414
▁사인	-11.4414
▁잔소리	-11.4414
▁쳐먹	-11.4414
것보단	-11.4415
발라	-11.4415
▁말티즈	-11.4415
AI	-11.4416
아ᅡᅡ	-11.4417
▁별이	-11.4417
중이라	-11.4418
▁봤다가	-11.4418
▁않았고	-11.4418
▁메기	-11.4419
문자	-11.4421
될까	-11.4422
▁우아	-11.4423
▁아맞다	-11.4424
▁ᄋᄌᄅ	-11.4424
▁깨우	-11.4425
gg	-11.4425
▁웃긴다	-11.4425
▁해줘서	-11.4426
seyo	-11.4427
▁덮어	-11.4428
▁말해서	-11.4429
▁구래	-11.4429
하였습니다	-11.4431
EN	-11.4433
▁최고로	-11.4433
▁행동을	-11.4434
을거야	-11.4435
▁머리도	-11.4436
▁윤리	-11.4436
▁유쾌	-11.4436
테일	-11.4437
▁빤	-11.4438
려니	-11.4439
▁승부	-11.444
▁킬링	-11.4441
쳐도	-11.4441
▁폴라	-11.4442
▁캣스타그램	-11.4442
▁할까요	-11.4445
신나	-11.4446
라나	-11.4447
▁머쓱	-11.4448
▁배추	-11.4449
벡	-11.445
하듯	-11.445
에서부터	-11.4452
뭄	-11.4453
▁죽겠다	-11.4453
▁어그로	-11.4454
▁아녜요	-11.4454
러버	-11.4454
당해서	-11.4455
▁개봉한	-11.4458
사에	-11.4459
▁왈	-11.446
하잖아요	-11.4461
ment	-11.4461
▁씌	-11.4461
▁여기도	-11.4462
▁본체	-11.4463
▁부끄러운	-11.4463
둡	-11.4463
▁세로	-11.4464
빌리	-11.4464
릅니다	-11.4466
▁해조	-11.4466
▁규모	-11.4466
▁장애	-11.4467
▁학생이	-11.4468
인스타	-11.4468
틧	-11.4469
▁연희동	-11.4469
▁해주시	-11.4469
▁축하해요	-11.4469
▁느낄수	-11.447
▁너와	-11.4471
▁가실	-11.4471
▁쫀득	-11.4473
▁못하는데	-11.4473
시마	-11.4473
▁깡패	-11.4473
찬스	-11.4473
▁원숭이	-11.4475
▁뭐하고	-11.4475
▁포스팅을	-11.4475
진정	-11.4475
▁훌	-11.4476
▁되는데요	-11.4476
▁공장	-11.4476
스러워서	-11.4479
▁쓰려고	-11.4479
뜩	-11.448
▁보지마세요	-11.4482
라면서	-11.4483
빰	-11.4485
힌다	-11.4486
▁매력을	-11.4487
▁에스크	-11.4488
▁오슷	-11.4488
▁상영관	-11.4488
▁ෆ	-11.4489
감독이	-11.4489
▁이미지가	-11.449
하셨어요	-11.4491
▁빠져들	-11.4491
졌네	-11.4492
▁구려	-11.4493
▁안되서	-11.4495
건조	-11.4495
▁심심하	-11.4497
▁수준의	-11.4498
▁점수를	-11.45
▁알콜	-11.4501
▁임시완	-11.4502
▁트랙	-11.4502
▁해야한다	-11.4502
한영화	-11.4502
▁일부터	-11.4503
▁몇일	-11.4504
맨이	-11.4505
ame	-11.4506
바스	-11.4506
▁소파	-11.4506
▁불타는	-11.4507
고잇음	-11.4508
듦	-11.4511
▁이거는	-11.4511
거아니냐	-11.4511
▁나왔을	-11.4513
▁손절	-11.4514
할줄	-11.4514
RT	-11.4514
▁세부	-11.4514
▁못사	-11.4518
▁쭉쭉	-11.4518
▁분동안	-11.4518
▁겪어	-11.4519
▁메가	-11.4521
크림빵	-11.4522
▁골골	-11.4522
해보세요	-11.4523
떨어지	-11.4524
라는거	-11.4525
뜨리	-11.4527
포기	-11.4529
보셈	-11.4529
속도	-11.4529
▁사용하고	-11.453
대맛집	-11.453
▁심해서	-11.453
ug	-11.4531
▁개조아	-11.4531
▁이제부터	-11.4532
아까	-11.4532
▁동작	-11.4532
▁들으며	-11.4532
▁예스	-11.4533
▁견과류	-11.4533
▁쿡스타그램	-11.4533
어린	-11.4534
▁그딴	-11.4534
▁Day	-11.4535
▁어떨까	-11.4536
사나	-11.4537
▁맞죠	-11.4538
▁보셨	-11.4539
▁리우	-11.454
▁La	-11.454
▁뉴비	-11.4541
ST	-11.4541
▁졸귀	-11.4542
▁분홍	-11.4544
▁팟	-11.4544
▁채팅	-11.4545
▁안되나	-11.4546
으므로	-11.4547
모카	-11.4547
▁재밋어	-11.4549
▁올림픽	-11.4551
▁몸살	-11.4551
▁생각하기	-11.4551
험	-11.4551
▁페스티벌	-11.4552
역사	-11.4552
▁크루	-11.4552
▁집중해서	-11.4552
▁본격	-11.4556
▁화제	-11.4556
▁사녹	-11.4556
▁알게되	-11.4557
▁하기도	-11.4559
힐링	-11.4559
▁적금	-11.4559
▁구린	-11.456
남친	-11.456
▁공공	-11.456
▁풀어주	-11.4561
▁예수님	-11.4561
느낌이	-11.4561
▁전체적인	-11.4562
고싶지	-11.4562
이에용	-11.4562
▁여자의	-11.4562
비밀	-11.4564
깎	-11.4564
▁너무좋다	-11.4565
▁정우성	-11.4565
▁주작	-11.4566
▁키아누	-11.4566
▁아카이	-11.4566
▁눈뜨	-11.4566
자료	-11.4566
▁정모	-11.4566
일은	-11.4567
국물	-11.4568
▁솜이	-11.4568
▁아앙	-11.4569
▁응모	-11.4569
해물	-11.457
▁똘추	-11.4571
instagood	-11.4571
▁영화였습니다	-11.4571
pi	-11.4575
이후	-11.4576
▁하와이	-11.4577
우가	-11.4578
숴	-11.4578
▁편의점에서	-11.4579
▁쩝	-11.4579
▁하는구나	-11.4579
▁남구	-11.458
youtubecomwatchv	-11.4582
단계	-11.4582
view	-11.4584
▁하시고	-11.4585
이후로	-11.4586
두개	-11.4588
▁식상	-11.4589
▁찾아보니	-11.4589
▁매니저	-11.459
마라톤	-11.4592
하단	-11.4593
현아	-11.4595
▁가다가	-11.4595
ᅲᅲᅮᅲ	-11.4597
▁세이버	-11.4597
▁만년필	-11.4598
▁안드로이드	-11.4598
▁바삭바삭	-11.4598
▁죽어서	-11.4599
▁은은하게	-11.4599
ᄏᄐᄏᄏᄏ	-11.4599
▁입력	-11.46
▁세금	-11.4601
we	-11.4603
폭탄	-11.4604
▁홈메이드	-11.4605
거에여	-11.4607
▁월요일에	-11.4612
뻘	-11.4613
▁반모	-11.4614
▁두꺼운	-11.4614
▁박지성	-11.4615
▁캠	-11.4617
ys	-11.4617
▁오토	-11.4618
▁관찰	-11.4618
▁일본의	-11.4619
▁나타난	-11.4619
▁밤을	-11.462
팔로	-11.462
셀스타그램	-11.4621
▁던지	-11.4622
▁모르겟	-11.4623
▁자기야	-11.4626
▁분류	-11.4627
펭	-11.463
▁베를린	-11.4631
▁헿	-11.4632
▁위안	-11.4634
▁헤더	-11.4635
▁말랑말랑	-11.4635
▁엉성	-11.4637
필터	-11.4637
가는중	-11.4638
▁시간대	-11.4638
▁저번주	-11.464
▁월부터	-11.464
▁갖고싶	-11.464
박사	-11.464
▁잔잔	-11.464
cake	-11.4642
▁따뜻	-11.4642
영환	-11.4644
▁가자고	-11.4644
▁심어	-11.4644
▁까는	-11.4645
▁모른	-11.4646
롸	-11.4647
▁딩	-11.4647
▁다음달	-11.4647
▁포르노	-11.4648
▁특이한	-11.4649
났어요	-11.465
인스타그램	-11.4651
▁띄워	-11.4652
▁왁	-11.4652
▁법을	-11.4652
▁티가	-11.4653
▁고통을	-11.4654
▁tmi	-11.4655
테크	-11.4655
머니	-11.4656
▁불매	-11.4657
ᅲᅲᅲᅲᅮ	-11.4658
▁소중하	-11.4659
▁방구	-11.466
▁안달	-11.4661
사장님	-11.4662
스님	-11.4662
뻑	-11.4662
▁미치게	-11.4663
▁사태	-11.4663
▁패러디	-11.4663
che	-11.4664
▁키워드	-11.4664
▁알러지	-11.4664
책을	-11.4664
▁임금	-11.4665
▁들러	-11.4666
▁트러블	-11.4666
▁팔뚝	-11.4666
▁표현한	-11.4668
르면	-11.4671
기엽	-11.4673
아아아악	-11.4674
▁자체로	-11.4674
▁에리	-11.4676
▁여섯시	-11.4677
뿌리	-11.4677
ᄏᄏ큐ᅲ	-11.4678
썻	-11.468
▁전엔	-11.4681
▁미친거	-11.4682
▁치약	-11.4682
uk	-11.4683
▁그런걸	-11.4683
▁웬만한	-11.4683
▁사는거	-11.4685
▁방향으로	-11.4685
간거	-11.4686
▁먹던	-11.4686
미국	-11.4687
공유	-11.4687
▁기현	-11.469
air	-11.469
▁먹어봤는데	-11.4692
▁기억도	-11.4693
▁베라	-11.4693
▁ᄆᄌ	-11.4694
▁Ro	-11.4695
ue	-11.4696
▁모욕	-11.4696
▁차로	-11.4697
지않을	-11.4698
▁감사드립니다	-11.4698
___	-11.4698
▁것만으로도	-11.4699
일정	-11.4699
주셨	-11.47
▁뽑은	-11.47
사키	-11.47
▁주제로	-11.4703
운전	-11.4703
▁쥐어	-11.4703
스에서	-11.4706
▁놓은	-11.4708
▁내리고	-11.4709
했었다	-11.471
여도	-11.471
▁바래	-11.4711
▁또는	-11.4711
▁몰랐어	-11.4711
▁정지	-11.4711
텍스	-11.4712
io	-11.4712
▁욕하고	-11.4713
벚꽃	-11.4713
드리겠습니다	-11.4715
▁간호사	-11.4717
▁대응	-11.4717
▁만나게	-11.4718
▁골라서	-11.4718
주면서	-11.4719
일상스타그램인스타푸드오늘뭐먹지	-11.4719
▁거미	-11.4719
▁공짜	-11.4721
만세	-11.4722
치곤	-11.4722
▁한시	-11.4722
귀찮	-11.4722
▁올라갔	-11.4722
양념	-11.4723
▁쪼개	-11.4725
▁되면서	-11.4725
▁그간	-11.4726
▁취향은	-11.4727
▁재밌었음	-11.4727
저런	-11.4727
랔	-11.4729
▁KBS	-11.4729
▁언니는	-11.473
▁무례	-11.473
▁푼	-11.4731
▁돌릴	-11.4731
▁판다	-11.4731
하셔도	-11.4731
▁감고	-11.4732
▁어제도	-11.4733
▁배그	-11.4734
밖	-11.4735
일지도	-11.4736
호박	-11.4738
▁일품	-11.4738
게됨	-11.4743
▁확인하고	-11.4745
▁재미로	-11.4745
▁차기작	-11.4746
▁총선	-11.4747
▁Le	-11.4747
▁본능	-11.4748
슈퍼	-11.475
▁만든거	-11.4751
나쁜	-11.4751
흘리	-11.4751
▁합작	-11.4752
먹으며	-11.4753
을수도	-11.4754
비님	-11.4754
▁살아야지	-11.4754
▁bo	-11.4755
▁현실에서	-11.4756
할수잇	-11.4756
▁지속	-11.4757
low	-11.4758
▁확대	-11.4758
▁명단	-11.4758
봉사	-11.4758
▁허엉	-11.4758
▁계셨	-11.4759
이쁘다	-11.4759
▁붕어빵	-11.4759
파이어	-11.4759
닭갈비	-11.4761
▁어떡하	-11.4761
▁견딜	-11.4763
▁한남들	-11.4763
own	-11.4764
▁보시길	-11.4764
▁얼큰	-11.4765
후라이	-11.4766
▁물어보면	-11.4766
▁나면서	-11.4766
▁남아있는	-11.4767
▁해찬	-11.4767
▁조음	-11.4767
프로그램	-11.4768
by	-11.4768
아오	-11.4769
쫓	-11.4769
어이없	-11.477
▁느려	-11.477
▁그야말로	-11.477
▁선사	-11.4771
을지도	-11.4772
▁같은데요	-11.4772
▁아이돌이	-11.4772
▁보나	-11.4772
▁심해	-11.4772
▁써먹	-11.4772
▁지키는	-11.4773
일상스타그램	-11.4774
▁미루고	-11.4775
▁간지나	-11.4776
▁월이	-11.4776
해야하나	-11.4776
감은	-11.4776
떤	-11.4777
▁깨물	-11.4777
쉿	-11.4778
야채	-11.478
▁백일	-11.478
▁없었으면	-11.4781
▁나니까	-11.4781
▁일간	-11.4783
▁시청자	-11.4785
손가락	-11.4788
▁먹으려	-11.4789
▁허리가	-11.4789
▁찍었는데	-11.479
봐야겠다	-11.4794
라이즈	-11.4795
▁canon	-11.4795
끝내	-11.4795
▁찾으러	-11.4796
쯤은	-11.4796
▁구도	-11.4797
▁파마	-11.4797
▁솔솔	-11.4798
▁예림이	-11.4798
▁없었어	-11.4798
▁셰	-11.4799
▁오영석	-11.4799
로서의	-11.4801
▁루머	-11.4801
잇지	-11.4801
▁치워	-11.4802
미랑	-11.4803
▁타격	-11.4803
해봅니다	-11.4804
▁루시	-11.4804
섯	-11.4805
▁안타깝다	-11.4805
▁동일	-11.4805
딧	-11.4806
▁보냈다	-11.4806
▁깨끗	-11.4806
▁운이	-11.4807
▁애들한테	-11.4808
▁베이커리	-11.4809
▁울리	-11.481
티드	-11.481
▁시작은	-11.4812
▁피시방	-11.4812
폴리	-11.4813
▁틀렸	-11.4813
팜	-11.4814
무엇	-11.4814
▁몸도	-11.4815
걸린	-11.4815
▁익숙	-11.4816
▁듣는다	-11.4816
타래	-11.4816
▁당첨되	-11.4817
▁몰겟	-11.4818
▁첨으로	-11.4818
▁곁	-11.4819
▁푸짐	-11.4819
▁동참	-11.4819
보시	-11.482
ᄆᄆ	-11.482
▁공중	-11.4823
귀신	-11.4824
▁목소리로	-11.4824
오늘도	-11.4827
▁마음만	-11.4828
미술관	-11.4829
햇더니	-11.483
▁질렀	-11.483
▁호빵	-11.483
체가	-11.483
▁무거워	-11.4831
▁저도요	-11.4832
▁복습	-11.4835
▁들어왔다	-11.4836
암동	-11.4836
▁하겠다	-11.4837
▁얘기도	-11.4837
빠빠	-11.484
▁마켓	-11.4843
▁일들이	-11.4844
쥴	-11.4845
▁도깨비	-11.4845
걸어	-11.4845
▁웬만하면	-11.4845
지도않고	-11.4845
▁모처럼	-11.4845
▁관캐	-11.4846
햌	-11.4848
탕수육	-11.4848
▁플러스	-11.4848
▁등에	-11.4848
▁같았는데	-11.4849
▁연필	-11.485
돈이	-11.4852
▁공카	-11.4852
▁빼앗	-11.4853
▁말씀을	-11.4853
▁코인	-11.4855
동에	-11.4856
밖에없	-11.4856
▁٩	-11.4856
▁러블리	-11.4858
▁되길	-11.4861
애요	-11.4862
▁떠나는	-11.4863
▁버틸	-11.4863
▁프라하	-11.4865
▁쓰러지	-11.4866
▁당하고	-11.4867
▁도착한	-11.4867
사이드	-11.4868
▁방법은	-11.4868
▁보드	-11.4868
EL	-11.4868
▁봤네	-11.4868
▁못찍	-11.4869
▁지들이	-11.4869
싼	-11.4869
▁신경써	-11.487
▁통영	-11.4871
▁죽지	-11.4872
▁호야	-11.4872
만하다	-11.4874
▁계속해서	-11.4874
▁미쳣	-11.4874
되니	-11.4876
▁진행되	-11.4877
깽	-11.4877
▁풍선	-11.4877
▁서류	-11.4878
▁헐리웃	-11.4878
펙	-11.4879
▁시티	-11.4879
▁대관	-11.4879
▁구르	-11.488
▁뭐래	-11.4881
때문이	-11.4881
느데	-11.4882
봣다	-11.4883
▁청바지	-11.4883
계시	-11.4885
▁비닐	-11.4885
▁일어나고	-11.4887
▁차분	-11.4887
선을	-11.4889
▁곡이	-11.4889
▁원더	-11.489
▁재탕	-11.489
▁하려면	-11.4892
ana	-11.4892
▁갖고싶다	-11.4893
투리	-11.4894
십셔	-11.4894
방앗간	-11.4895
슴니다	-11.4895
▁정신없이	-11.4896
▁부동산	-11.4898
해지면	-11.4901
▁찔러	-11.4901
멍청	-11.4902
▁뺏어	-11.4903
뿔	-11.4904
▁찍음	-11.4904
▁코끼리	-11.4904
▁주제가	-11.4905
▁안뇽	-11.4905
대생	-11.4905
낙지	-11.4906
▁아카데미	-11.4906
▁놀랬	-11.4907
뭐냐	-11.4909
▁쪽에	-11.491
▁공부하는	-11.4914
▁윙크	-11.4914
▁일하기	-11.4917
▁알바생	-11.4917
헤드	-11.4918
▁꽝	-11.4918
▁쓴거	-11.4918
해놓은	-11.4919
▁당연하	-11.4921
몰입	-11.4921
찍는	-11.4922
▁전화를	-11.4923
▁ba	-11.4923
▁땡큐	-11.4925
jpg	-11.4928
و	-11.4928
▁삼시세끼	-11.4928
옇	-11.4928
▁온전히	-11.4928
▁이석민	-11.4929
▁히엉이	-11.4929
갈수록	-11.493
▁저녁으로	-11.4931
▁아쉬	-11.4932
▁작아서	-11.4932
▁엉엉엉	-11.4933
콰	-11.4933
▁푸딩	-11.4934
차별	-11.4934
▁씹어먹	-11.4935
▁통증	-11.4936
▁잡아주	-11.4936
▁마쟈	-11.4937
▁숨겨진	-11.4939
▁얘기하고	-11.494
▁썼던	-11.4941
▁놀래	-11.4941
▁사람마다	-11.4942
네이처	-11.4943
▁드네요	-11.4943
▁섬세	-11.4943
▁지혜	-11.4944
▁년도에	-11.4944
▁가스	-11.4945
끓	-11.4946
피닉스	-11.4946
힉	-11.4946
▁믿지	-11.4947
▁읽으면서	-11.4947
모르는	-11.4949
▁선명	-11.4949
▁넓어	-11.495
용이	-11.495
▁아아아	-11.495
왤케	-11.4951
루미	-11.4951
▁같던데	-11.4951
▁나아가	-11.4951
▁아마존	-11.4952
▁민초	-11.4953
▁법정	-11.4954
▁다루는	-11.4954
비비	-11.4955
▁어찌나	-11.4956
▁눈알	-11.4956
▁깨닫고	-11.4957
▁흔들어	-11.4957
해피	-11.4959
▁강력한	-11.496
나이트	-11.4961
▁답답해	-11.4961
▁macaron	-11.4962
▁모양이	-11.4962
▁콕	-11.4962
▁한국은	-11.4963
하고싶은데	-11.4963
▁홀리	-11.4963
▁시대의	-11.4964
▁보려	-11.4964
▁아이들의	-11.4964
▁만약에	-11.4965
야마	-11.4966
▁웃으며	-11.4966
성분	-11.4967
▁안에는	-11.4967
▁어려울	-11.4968
▁살다가	-11.4969
발로	-11.4969
▁비치	-11.4969
▁주전	-11.4973
▁예시	-11.4974
▁연기에	-11.4975
▁출석	-11.4975
해본다	-11.4976
▁미치겠네	-11.4976
▁뭐에요	-11.4977
▁금액	-11.4977
▁너무귀여워	-11.4978
혓	-11.4979
▁찾아볼	-11.498
인건가	-11.498
▁골랐	-11.498
▁오프라인	-11.4981
▁궁금했던	-11.4981
▁본격적으로	-11.4981
▁저사람	-11.4982
자국	-11.4982
▁지상	-11.4985
거리며	-11.4986
▁해변	-11.4986
▁중국집	-11.4986
내리는	-11.4986
▁기분을	-11.4986
▁여전	-11.4986
▁밸런스	-11.4986
하셨습니다	-11.4987
방구	-11.4987
▁ᅲᅲᅲᅲᅲᅲᅲᅲᅲᅲᅲᅲ	-11.4988
생겨서	-11.499
이치	-11.4991
▁드시고	-11.4992
▁개인의	-11.4993
▁운운	-11.4993
안이	-11.4993
▁감동의	-11.4994
벳	-11.4995
▁근디	-11.4995
▁찾아왔	-11.4995
▁건드리	-11.4995
쨋	-11.4996
해볼까	-11.4996
▁instadaily	-11.4996
▁컨트롤	-11.4997
▁전라도	-11.4999
▁아처	-11.4999
벌이	-11.5
▁큐티	-11.5001
▁누군가에게	-11.5002
▁년은	-11.5003
▁재밌습니다	-11.5005
▁블블	-11.5005
▁육아스타그램	-11.5009
▁숨이	-11.501
스포	-11.5011
할래요	-11.5011
많다	-11.5012
▁생물	-11.5012
▁이상하고	-11.5012
▁뜻밖의	-11.5013
깻	-11.5013
▁숏컷	-11.5013
▁로버트	-11.5013
▁견뎌	-11.5013
▁공강	-11.5015
엇으면	-11.5017
매력	-11.5023
중의	-11.5023
▁기세	-11.5023
▁병원에	-11.5023
ew	-11.5023
음을	-11.5023
짜릿	-11.5023
▁악의	-11.5025
▁측면	-11.5026
▁공통점	-11.5026
드시	-11.5028
▁동원	-11.5029
CC	-11.5029
▁크로스	-11.5032
▁명성	-11.5032
▁메타	-11.5032
▁부서	-11.5034
▁사세요	-11.5035
IA	-11.5036
▁브로	-11.5037
범죄	-11.5037
▁개쩔	-11.5037
▁인강	-11.5038
▁사랑하지	-11.5038
▁저항	-11.5038
마치	-11.5039
먹스타그램촵촵푸드스타그램먹둥밍	-11.5039
얼마	-11.504
▁번쩍	-11.504
▁오늘자	-11.5041
삼아	-11.5042
▁lo	-11.5044
▁부산대	-11.5044
▁팡팡	-11.5045
로즈	-11.5047
회식	-11.5047
▁첫인상	-11.5047
▁정리하고	-11.5048
▁유익	-11.5049
▁활짝	-11.5049
▁볼륨	-11.5049
에센스	-11.5049
이었구나	-11.505
생각을	-11.505
▁소중해	-11.505
ᅮᅮᅮᅮᅮᅮᅮᅮ	-11.5052
냠	-11.5053
▁직원들	-11.5053
▁누르고	-11.5055
▁업는	-11.5055
▁멍멍이	-11.5056
아아아아아	-11.5056
ᄏᄀᄏ	-11.5059
▁스토리와	-11.506
▁각오	-11.5061
▁강제로	-11.5061
▁들게	-11.5062
▁네오	-11.5062
후회	-11.5063
▁쵸	-11.5063
▁엉망진창	-11.5064
▁왕십리	-11.5064
펙트	-11.5064
▁설렘	-11.5065
▁투썸	-11.5066
▁쌍욕	-11.5066
▁웃는거	-11.5067
▁흔히	-11.5068
성으로	-11.5068
▁특전	-11.5069
▁많으면	-11.5069
▁재밌다고	-11.5069
▁편도	-11.5073
하는건데	-11.5073
플라워	-11.5074
▁간직	-11.5075
▁비벼	-11.5076
할거면	-11.5078
안된다	-11.5078
▁멋지고	-11.5078
▁선택지	-11.5078
▁어딨어	-11.5078
▁알겠어	-11.5078
▁슈가	-11.5079
▁업그레이드	-11.5081
▁메론	-11.5081
ᅮᅮᅲᅲ	-11.5081
▁벗고	-11.5084
▁영양제	-11.5086
뎈	-11.5088
자주	-11.5088
▁소망	-11.5089
앰플	-11.5089
▁안되겠다	-11.5089
▁자기전에	-11.5089
▁아침마다	-11.509
▁중입니다	-11.5092
▁어설프	-11.5093
▁호칭	-11.5093
▁생일축하	-11.5093
▁쌤이	-11.5095
▁누구랑	-11.5096
맛있는	-11.5096
먹는거	-11.5097
이군	-11.5099
▁심심한	-11.5101
▁바꾸는	-11.5102
▁테크	-11.5104
부는	-11.5105
▁용이	-11.5105
▁업체	-11.5105
▁고양이를	-11.5106
받았다	-11.5106
▁소개해	-11.5106
ᄏᄀ	-11.5109
▁감자탕	-11.5109
계에	-11.511
ire	-11.511
▁쇼핑몰	-11.511
▁ᄊ	-11.5111
문의	-11.5111
원에서	-11.5112
굵	-11.5114
하구나	-11.5115
▁아이언맨	-11.5115
▁냄	-11.5115
▁출연진	-11.5119
▁짜증나서	-11.5119
▁내려서	-11.512
▁앨범이	-11.512
▁들으니까	-11.5121
▁강쥐	-11.5122
▁다이아	-11.5123
▁많았는데	-11.5123
▁글쓰기	-11.5125
▁지리	-11.5125
경험	-11.5125
▁따른	-11.5125
▁선호	-11.5125
인친	-11.5125
한건데	-11.5126
▁가사가	-11.5126
해보이	-11.513
▁천년	-11.513
ight	-11.5131
▁등신	-11.5131
▁나라의	-11.5131
하다보니	-11.5131
크럼블	-11.5132
▁현지	-11.5132
▁방탈출	-11.5134
▁빛나	-11.5135
져야	-11.5138
▁유럽여행	-11.5138
▁우리딸	-11.5138
된다는	-11.5139
▁다행인	-11.514
▁늦잠	-11.514
▁어렵고	-11.514
▁엄마도	-11.5142
▁뭘로	-11.5143
초반	-11.5143
▁콧물	-11.5143
색기	-11.5144
▁아니엇	-11.5144
▁물어봤	-11.5144
▁스냅	-11.5145
▁놈들이	-11.5146
ᄏᄀᄀ	-11.5146
▁슈크림	-11.5146
깊은	-11.5148
▁최초	-11.5149
으으	-11.515
똑같	-11.515
놓은거	-11.5151
▁감싸	-11.5151
실력	-11.5152
▁공부할	-11.5156
▁공부하기	-11.5159
▁종료	-11.5159
▁자비	-11.5159
▁고민하고	-11.516
▁깰	-11.516
▁보내줘	-11.5161
▁솟	-11.5163
▁잠옷	-11.5165
▁룰루	-11.5166
박람회	-11.5166
▁오페라	-11.5167
▁라서	-11.5167
뿐만	-11.5167
▁슈퍼엠	-11.5169
때문	-11.517
▁녀	-11.5171
합니	-11.5171
res	-11.5171
적이라	-11.5172
▁김해	-11.5173
▁메밀	-11.5174
▁곳인데	-11.5175
공방	-11.5175
foodpics	-11.5176
라운드	-11.5176
하디	-11.5176
▁점심을	-11.5177
공장	-11.5178
▁친구도	-11.5178
는것이	-11.5178
▁알려준	-11.5179
▁큐브	-11.518
가봐요	-11.518
ᄀᄀᄀ	-11.5181
▁집중력	-11.5181
cat	-11.5181
▁오븐	-11.5181
▁되어버렸	-11.5182
▁오셨	-11.5182
▁갬성	-11.5183
라는걸	-11.5183
▁올라갈	-11.5183
여ᅲ	-11.5183
▁꼬박꼬박	-11.5183
자들은	-11.5184
▁어느덧	-11.5185
▁모셔	-11.5187
미쳐	-11.5188
▁치아	-11.5189
때쯤	-11.5192
▁왜그래	-11.5192
▁론	-11.5192
해써	-11.5193
▁잘못한	-11.5193
▁학대	-11.5194
▁대결	-11.5194
▁힘드네	-11.5194
키우	-11.5196
▁소감	-11.5196
▁보시는	-11.5198
성우	-11.5198
▁수호	-11.5199
▁외워	-11.52
한거야	-11.52
내면	-11.52
▁고기를	-11.5201
뺑	-11.5201
▁diet	-11.5201
▁왜곡	-11.5201
쉬림프	-11.5202
나나	-11.5202
▁브레	-11.5202
▁퀴퍼	-11.5202
겪	-11.5203
▁알려주는	-11.5203
▁누군가를	-11.5203
▁사랑스럽	-11.5204
▁한화	-11.5204
▁누구냐	-11.5204
▁높아서	-11.5204
같지만	-11.5206
하지는	-11.5208
vo	-11.5209
▁술먹고	-11.5209
▁없구나	-11.5209
▁담주에	-11.5211
애비	-11.5212
▁우리엄마	-11.5212
▁쪼아	-11.5212
먹스타그램맛스타그램	-11.5213
시켜서	-11.5213
▁이어지	-11.5214
안함	-11.5214
▁도토리	-11.5214
▁깎아	-11.5215
▁에센스	-11.5216
머리가	-11.5217
▁예뻤	-11.5218
▁마요네즈	-11.5219
힣	-11.5219
▁멈출	-11.5219
▁개씩	-11.522
▁여름휴가	-11.522
▁저녁식사	-11.522
▁바꿔서	-11.522
▁출국	-11.5223
▁어딧	-11.5223
▁균형	-11.5224
▁반가워	-11.5224
▁가야겠다	-11.5224
▁무덤	-11.5226
▁센치	-11.5228
됐네	-11.5229
▁서로의	-11.523
▁길다	-11.523
있었음	-11.5233
CH	-11.5233
헹	-11.5235
▁손잡고	-11.5236
▁제사	-11.5237
▁생강	-11.5237
▁뀨	-11.5238
BO	-11.5238
▁사내	-11.5238
IS	-11.5239
▁성노동	-11.524
도아니고	-11.524
▁차이나	-11.5241
게이트	-11.5242
▁특성	-11.5243
▁심즈	-11.5244
뵈	-11.5244
▁읽어야	-11.5245
▁표현할	-11.5245
▁블레	-11.5247
▁버블	-11.5247
올게	-11.5248
▁했을까	-11.5251
뮤직	-11.5252
창고	-11.5252
▁happy	-11.5253
▁반려동물	-11.5253
▁예민한	-11.5254
▁흘려	-11.5255
▁목살	-11.5255
▁잘생기	-11.5256
▁기관	-11.5256
▁국민의	-11.5257
▁korea	-11.5258
▁배역	-11.5259
▁반에	-11.526
▁갔다왔	-11.5261
사에서	-11.5261
핫도그	-11.5262
▁제맛	-11.5263
와야지	-11.5263
▁안드	-11.5264
직전	-11.5265
히어로	-11.5267
▁지진	-11.5267
되면서	-11.5269
나오네	-11.5269
▁영상은	-11.5271
갓는데	-11.5272
주네	-11.5272
▁잃고	-11.5273
뷔	-11.5274
▁다녀야	-11.5275
▁맛잇는	-11.5275
▁킨	-11.5276
주실분	-11.5276
▁맥북	-11.5279
훌	-11.5279
▁뿐만	-11.528
사업	-11.5282
▁봐야겠다	-11.5282
▁있구	-11.5282
▁깍	-11.5282
▁페친	-11.5282
▁분장	-11.5284
세우	-11.5284
▁사람입니다	-11.5285
ᄏ큐ᅲᅲ	-11.5286
현우	-11.5286
▁무섭게	-11.5286
그때	-11.5287
▁꾸역꾸역	-11.5287
▁흔	-11.5288
▁점짜리	-11.5288
닙	-11.5288
▁전반	-11.5288
잘해	-11.529
▁커녕	-11.5291
하는듯	-11.5292
잘알	-11.5293
어떤	-11.5293
▁애인이랑	-11.5294
▁해소	-11.5295
▁핥	-11.5296
▁여권	-11.5296
catstagram	-11.5298
▁뽑는	-11.5298
▁우파	-11.5298
pp	-11.53
▁코피	-11.53
였다면	-11.5301
쉐프	-11.5301
eep	-11.5302
▁먹는게	-11.5302
▁교차	-11.5304
▁바퀴	-11.5306
▁기묘한	-11.5306
▁지나도	-11.5306
▁플레이리스트	-11.5306
▁우수	-11.5307
보수	-11.5308
▁믿기지	-11.5309
▁두툼	-11.5309
하겠다고	-11.531
마감	-11.5311
자에게	-11.5311
이였다	-11.5312
▁안개	-11.5312
업는	-11.5313
▁계시는	-11.5313
▁흘리	-11.5314
▁만들었는데	-11.5314
▁레이디	-11.5315
갓다가	-11.5317
▁당당	-11.5318
▁잘봤습니다	-11.5318
▁순간에	-11.5322
▁카리스마	-11.5322
▁느린	-11.5324
▁엽	-11.5325
셨네요	-11.5328
▁모습은	-11.5329
▁뛰어나	-11.5331
같은게	-11.5332
메이커	-11.5332
쟤	-11.5332
▁쬐	-11.5333
욬ᄏᄏᄏᄏᄏᄏᄏ	-11.5333
▁수퍼	-11.5334
▁잠은	-11.5334
▁분위기를	-11.5335
▁부실	-11.5335
▁쿵	-11.5336
▁열차	-11.5336
▁닦아	-11.5336
▁데에	-11.5336
▁핫플	-11.5336
▁수업을	-11.5338
없어요	-11.534
▁빡친다	-11.534
▁피가	-11.5341
▁끝나지	-11.5341
▁파라	-11.5341
▁미성년	-11.5343
▁추측	-11.5343
▁봐줄	-11.5343
▁들어본	-11.5344
거라는	-11.5344
▁뭐시기	-11.5345
▁멤	-11.5345
▁아가들	-11.5346
왔지만	-11.5347
▁울엄마	-11.535
▁보고십	-11.535
▁병원가	-11.535
아아앙	-11.535
▁문명	-11.5351
희가	-11.5351
▁안재현	-11.5352
슐	-11.5354
폭발	-11.5355
▁간판	-11.5355
▁갠차나	-11.5357
▁럭키	-11.5358
▁충전기	-11.5358
닉가	-11.5358
▁알앗는데	-11.536
▁저두요	-11.536
▁겹치	-11.5361
▁가격은	-11.5362
▁안나와	-11.5362
▁가나	-11.5362
▁등교	-11.5364
발표	-11.5364
▁꿈꾸	-11.5364
한정	-11.5365
▁받게	-11.5366
신가요	-11.5368
던게	-11.5368
rain	-11.5369
▁이케아	-11.537
▁생일파티	-11.537
dr	-11.5371
▁쪼꼬	-11.5371
▁행복할	-11.5372
▁볼만했	-11.5374
▁신중	-11.5375
해둔	-11.5376
▁맛없없	-11.5376
춥	-11.5377
▁걸쳐	-11.5377
▁정복	-11.5378
▁오늘까지	-11.5378
한남대	-11.5378
같다고	-11.5378
▁엄마표	-11.5379
▁조타	-11.5381
▁필립	-11.5382
rs	-11.5383
▁그만해	-11.5383
▁현실에	-11.5383
▁아니더라도	-11.5383
▁그리운	-11.5384
▁얌전	-11.5385
▁보았습니다	-11.5385
▁놀랍다	-11.5385
▁버리는	-11.5385
철이	-11.5385
메이크업	-11.5386
▁그랜드	-11.5386
▁하품	-11.5386
▁했으나	-11.5387
카와	-11.5388
▁싸고	-11.5388
▁달에	-11.5388
말리	-11.5389
▁얘길	-11.539
▁달걀	-11.539
금이	-11.539
▁달리기	-11.5391
맛있어	-11.5391
모어	-11.5391
▁놀기	-11.5391
▁하거나	-11.5391
중심	-11.5391
켈	-11.5392
▁닮아	-11.5392
했으니까	-11.5392
빽	-11.5392
▁묻고	-11.5394
▁안먹고	-11.5394
way	-11.5395
누르	-11.5397
곰탕	-11.5397
▁잡아먹	-11.5397
▁칭찬해	-11.5399
▁의료	-11.54
▁헐랭	-11.54
미스	-11.54
해버림	-11.5402
▁옷은	-11.5402
▁말하자면	-11.5404
▁그럴듯	-11.5404
▁배는	-11.5406
터져	-11.5407
▁사막	-11.5407
▁조아서	-11.5407
▁개망	-11.5408
▁스페이스	-11.5409
▁밋밋	-11.541
셩	-11.541
▁피카츄	-11.541
[...]
